{
  "'d": 1017,
  "'ll": 581,
  "'m": 437,
  "'re": 214,
  "'s": 18,
  "'t": 75,
  "'ve": 348,
  "<pad>": 1,
  "<unk>": 3,
  "A": 250,
  "AA": 5596,
  "AAA": 27979,
  "AB": 4546,
  "AC": 2562,
  "ACE": 15949,
  "ACK": 14940,
  "AD": 2606,
  "AF": 8573,
  "AFP": 11528,
  "AG": 3450,
  "AGE": 14426,
  "AH": 15334,
  "AIN": 33178,
  "AKING": 16371,
  "AL": 2118,
  "ALD": 34791,
  "AM": 2620,
  "AMA": 19455,
  "AMD": 42181,
  "AN": 1889,
  "ANA": 14629,
  "AND": 5945,
  "ANE": 19621,
  "ANG": 9298,
  "ANK": 10227,
  "ANN": 15118,
  "ANS": 6557,
  "ANT": 11088,
  "AP": 591,
  "APH": 30638,
  "AR": 2747,
  "ARD": 11250,
  "ARE": 7982,
  "AS": 2336,
  "ASS": 17042,
  "AT": 2571,
  "ATED": 5161,
  "ATH": 18267,
  "ATING": 18990,
  "ATION": 6034,
  "ATIONAL": 23771,
  "ATIVE": 39869,
  "AV": 10612,
  "AW": 10751,
  "AY": 2547,
  "AZ": 15134,
  "Ab": 13112,
  "About": 21674,
  "Above": 42599,
  "Abs": 43610,
  "Absolutely": 32523,
  "Ac": 26145,
  "Acc": 36984,
  "According": 14693,
  "Across": 42945,
  "Act": 26880,
  "Active": 42586,
  "Actor": 40448,
  "Actually": 36900,
  "Ad": 9167,
  "Adam": 24671,
  "Add": 20763,
  "Additional": 8665,
  "Additionally": 42713,
  "Advertisement": 41187,
  "Advertisements": 49652,
  "Af": 15426,
  "After": 4993,
  "Ag": 19897,
  "Again": 34790,
  "Against": 41634,
  "Age": 39006,
  "Ah": 17986,
  "Aid": 33263,
  "Air": 17906,
  "Al": 7083,
  "Alex": 16804,
  "Ali": 37358,
  "All": 3684,
  "Allah": 45077,
  "Allen": 32291,
  "Allow": 47465,
  "Almost": 32136,
  "Along": 40066,
  "Already": 44307,
  "Also": 22412,
  "Although": 13863,
  "Am": 10127,
  "Amazing": 41710,
  "Amazon": 25146,
  "Amb": 36376,
  "Americ": 46109,
  "America": 12580,
  "American": 4310,
  "Americans": 15085,
  "Amid": 42332,
  "Among": 36342,
  "An": 4688,
  "Analy": 41640,
  "And": 2409,
  "Anderson": 41186,
  "Andrew": 19843,
  "Ang": 25441,
  "Ann": 20767,
  "Another": 21518,
  "Ant": 18348,
  "Anti": 40948,
  "Any": 11913,
  "Anyone": 25480,
  "Anyway": 46871,
  "Ap": 36675,
  "App": 19186,
  "Apparently": 40860,
  "April": 13949,
  "Ar": 8138,
  "Arch": 37848,
  "Are": 13755,
  "Ari": 30195,
  "Arizona": 36851,
  "Army": 41810,
  "Art": 23295,
  "Article": 24970,
  "As": 1620,
  "Ash": 29460,
  "Ask": 33895,
  "Asked": 46688,
  "Ass": 26039,
  "Associated": 17044,
  "At": 3750,
  "Atlanta": 36974,
  "Att": 28062,
  "Attempt": 47797,
  "Attempts": 48189,
  "Attorney": 41339,
  "Aud": 37779,
  "August": 20041,
  "Aust": 42509,
  "Australia": 25533,
  "Author": 42779,
  "Authorities": 29151,
  "Av": 23389,
  "Ay": 41585,
  "B": 387,
  "BBC": 28713,
  "BD": 18941,
  "BE": 8827,
  "BG": 33887,
  "BI": 5383,
  "BM": 13386,
  "BN": 15048,
  "BO": 7997,
  "BP": 21792,
  "BR": 7202,
  "BRE": 37589,
  "BS": 3297,
  "BUR": 10803,
  "BUS": 22295,
  "Back": 19085,
  "Ban": 33809,
  "Bank": 13532,
  "Bar": 14507,
  "Based": 20930,
  "Basically": 34480,
  "Bat": 43852,
  "Be": 9325,
  "Bec": 41094,
  "Because": 10105,
  "Before": 17206,
  "Being": 15952,
  "Bel": 19877,
  "Ben": 17521,
  "Ber": 26795,
  "Bernie": 45434,
  "Bet": 33603,
  "Between": 37257,
  "Beyond": 36971,
  "Big": 12583,
  "Bill": 19993,
  "Bl": 12654,
  "Black": 11368,
  "Bloomberg": 35450,
  "Blue": 17858,
  "Bob": 25158,
  "Bon": 35994,
  "Book": 24751,
  "Border": 43620,
  "Both": 16991,
  "Bottom": 45959,
  "Br": 16366,
  "Bra": 41413,
  "Brazil": 31004,
  "Bre": 31607,
  "Break": 39539,
  "Breaking": 29908,
  "Brexit": 16636,
  "Brian": 28915,
  "Bring": 34306,
  "Britain": 29246,
  "British": 24270,
  "Brook": 37211,
  "Bug": 46379,
  "Bur": 30593,
  "Bush": 43294,
  "Business": 18562,
  "But": 1708,
  "Buzz": 38301,
  "By": 2765,
  "C": 347,
  "CA": 4054,
  "CAR": 22965,
  "CB": 25392,
  "CBC": 17542,
  "CBS": 8949,
  "CC": 3376,
  "CD": 11579,
  "CE": 8041,
  "CF": 25388,
  "CH": 3764,
  "CHA": 32812,
  "CHR": 34990,
  "CIA": 42791,
  "CL": 7454,
  "CLE": 21631,
  "CLUS": 22065,
  "CM": 18814,
  "CNN": 16256,
  "CO": 6335,
  "COM": 10370,
  "CON": 15299,
  "CP": 7496,
  "CS": 6842,
  "Ca": 38593,
  "Calif": 25839,
  "California": 26926,
  "Camp": 31990,
  "Can": 10836,
  "Canada": 14031,
  "Canadian": 24819,
  "Cand": 41309,
  "Cap": 15791,
  "Capital": 38632,
  "Car": 9518,
  "Card": 23818,
  "Carl": 22591,
  "Carter": 43732,
  "Cash": 32987,
  "Cast": 28605,
  "Cath": 44378,
  "Catholic": 42799,
  "Cause": 43326,
  "Central": 25674,
  "Certainly": 32476,
  "Ch": 4771,
  "Chall": 41584,
  "Change": 36657,
  "Charles": 29217,
  "Charlie": 34320,
  "Check": 26615,
  "Chelsea": 27725,
  "Chicago": 21897,
  "Child": 39487,
  "Children": 31008,
  "China": 8481,
  "Chris": 16084,
  "Christ": 26352,
  "Christian": 27077,
  "Christopher": 41055,
  "Church": 43138,
  "Circ": 43412,
  "City": 15075,
  "Civil": 41044,
  "Cl": 11428,
  "Cla": 25127,
  "Clark": 36243,
  "Clear": 18938,
  "Clearly": 30770,
  "Click": 22473,
  "Clinton": 36206,
  "Cloud": 14438,
  "Co": 8739,
  "Cod": 47436,
  "Col": 18551,
  "Cold": 38191,
  "Columb": 34809,
  "Com": 14721,
  "Come": 22817,
  "Coming": 31795,
  "Comm": 33479,
  "Comments": 45834,
  "Commission": 44503,
  "Common": 40437,
  "Commun": 38644,
  "Community": 36242,
  "Comp": 24699,
  "Compared": 44891,
  "Compl": 45312,
  "Con": 9157,
  "Conclusion": 48984,
  "Conf": 33295,
  "Cong": 42337,
  "Congratulations": 35863,
  "Congress": 25997,
  "Connor": 14919,
  "Cons": 24514,
  "Conservative": 43381,
  "Consider": 44311,
  "Considering": 41562,
  "Const": 35319,
  "Cont": 26412,
  "Contin": 28883,
  "Cool": 37739,
  "Cop": 42989,
  "Copyright": 19538,
  "Cor": 15228,
  "Could": 35299,
  "Council": 38625,
  "Count": 23329,
  "Court": 37349,
  "Cr": 29792,
  "Create": 44758,
  "Crime": 41514,
  "Cro": 36537,
  "Cru": 43073,
  "Crunch": 32105,
  "Cruz": 41747,
  "Cur": 42090,
  "Currently": 35416,
  "Custom": 36962,
  "D": 495,
  "DA": 3134,
  "DB": 10842,
  "DC": 5949,
  "DD": 27140,
  "DEF": 44438,
  "DF": 9380,
  "DI": 10063,
  "DIR": 47992,
  "DO": 19174,
  "DP": 5174,
  "DR": 10644,
  "DS": 5433,
  "DW": 39751,
  "Daily": 26339,
  "Dallas": 36128,
  "Dam": 33905,
  "Dan": 25887,
  "Daniel": 18322,
  "Dark": 35268,
  "David": 8773,
  "Davis": 36787,
  "Days": 41077,
  "De": 13365,
  "Deal": 43787,
  "Dean": 42862,
  "Dear": 23314,
  "Death": 34811,
  "Deb": 33402,
  "December": 17704,
  "Decl": 45788,
  "Deep": 35166,
  "Def": 17425,
  "Defense": 39049,
  "Definition": 47926,
  "Del": 21502,
  "Dem": 24658,
  "Democratic": 38729,
  "Democrats": 36345,
  "Den": 27267,
  "Department": 42961,
  "Depending": 44402,
  "Des": 28324,
  "Despite": 15243,
  "Details": 45360,
  "Di": 29038,
  "Did": 20328,
  "Die": 28535,
  "Different": 44863,
  "Director": 35789,
  "Dis": 26402,
  "Dist": 42390,
  "Do": 8275,
  "Documents": 47722,
  "Does": 27847,
  "Don": 6766,
  "Donald": 19195,
  "Dou": 39756,
  "Down": 17853,
  "Dr": 14043,
  "Draw": 45941,
  "During": 14229,
  "E": 717,
  "EC": 3586,
  "ECT": 15004,
  "ED": 1691,
  "EFF": 28991,
  "EG": 7170,
  "EL": 3721,
  "EM": 5330,
  "EMA": 26674,
  "EN": 2796,
  "ENCE": 13471,
  "END": 9309,
  "ENS": 12743,
  "ENT": 5382,
  "EP": 9662,
  "ER": 2076,
  "ERE": 23142,
  "ERG": 39042,
  "ERO": 37553,
  "ERS": 4322,
  "ERT": 18854,
  "ES": 1723,
  "ESA": 32416,
  "ESS": 12147,
  "EST": 4923,
  "EU": 14707,
  "EX": 6725,
  "Each": 20319,
  "Ear": 45813,
  "Earlier": 30541,
  "Early": 35193,
  "Ec": 44220,
  "Econom": 44494,
  "Economic": 41376,
  "Ed": 5404,
  "Edit": 44337,
  "Editor": 31611,
  "Eight": 33173,
  "Either": 40671,
  "El": 9682,
  "Ele": 28888,
  "Elizabeth": 41015,
  "Ell": 31870,
  "Em": 16750,
  "Email": 46084,
  "Emb": 42578,
  "Emergency": 40638,
  "Emily": 41004,
  "Empty": 47819,
  "En": 16040,
  "Enc": 45780,
  "End": 18547,
  "Enjoy": 44049,
  "Enough": 41844,
  "Enter": 30078,
  "Environment": 46291,
  "Ep": 39318,
  "Equ": 28568,
  "Eric": 24375,
  "Ess": 38469,
  "Est": 27602,
  "Eth": 42301,
  "Euro": 21941,
  "Europe": 27000,
  "European": 17108,
  "Even": 8170,
  "Eventually": 42280,
  "Ever": 27172,
  "Every": 7682,
  "Everybody": 15216,
  "Everyone": 11243,
  "Everything": 15173,
  "Evidence": 46069,
  "Evil": 46574,
  "Ex": 9089,
  "Exactly": 46149,
  "Exc": 42765,
  "Except": 45035,
  "Experts": 44966,
  "Expl": 43043,
  "Ext": 40884,
  "Extreme": 43239,
  "F": 597,
  "FB": 22687,
  "FBI": 34823,
  "FC": 5268,
  "FD": 24667,
  "FF": 7389,
  "FH": 43316,
  "FI": 14071,
  "FIELD": 19095,
  "FK": 41489,
  "FL": 7613,
  "FOR": 27201,
  "FORM": 38036,
  "FOX": 26931,
  "FP": 9763,
  "FR": 5499,
  "Fab": 36578,
  "Face": 34892,
  "Facebook": 18064,
  "Fact": 37724,
  "Failure": 45723,
  "Faith": 43456,
  "Fake": 38193,
  "Far": 20680,
  "Father": 40589,
  "Fe": 29037,
  "Featured": 20877,
  "Feb": 20160,
  "February": 22458,
  "Federal": 33509,
  "Feed": 37464,
  "Fif": 43875,
  "Fight": 40520,
  "Fil": 36361,
  "Files": 14824,
  "Final": 38083,
  "Finally": 35703,
  "Find": 38195,
  "Fine": 45089,
  "Fire": 17260,
  "First": 10993,
  "Fish": 43643,
  "Five": 25496,
  "Fl": 16197,
  "Fla": 36150,
  "Flash": 42748,
  "Fle": 37044,
  "Flickr": 44498,
  "Florida": 31614,
  "Follow": 18622,
  "Following": 20839,
  "Foot": 43244,
  "For": 2709,
  "Ford": 36982,
  "Fore": 34439,
  "Foreign": 37221,
  "Former": 12815,
  "Fort": 23565,
  "Fortunately": 40926,
  "Four": 22113,
  "Fourth": 46354,
  "Fox": 19360,
  "Fr": 29220,
  "Franc": 38461,
  "Fre": 35673,
  "Free": 18074,
  "French": 28586,
  "Friday": 19203,
  "Friends": 36042,
  "From": 7605,
  "Front": 35985,
  "Full": 31440,
  "Fund": 13632,
  "Further": 37666,
  "Furthermore": 42395,
  "Future": 37577,
  "G": 534,
  "GA": 4164,
  "GBT": 47872,
  "GC": 11961,
  "GF": 27150,
  "GH": 17201,
  "GM": 16972,
  "GO": 14740,
  "GR": 11621,
  "GU": 37133,
  "GV": 37838,
  "GW": 32880,
  "Ga": 32675,
  "Gab": 39767,
  "Gal": 32302,
  "Game": 20178,
  "Gay": 43086,
  "Gaza": 45903,
  "Ge": 20981,
  "Gen": 15887,
  "Gender": 46049,
  "Gene": 22648,
  "General": 9344,
  "Generally": 41175,
  "George": 25395,
  "Georgia": 39331,
  "Germany": 24596,
  "Get": 14181,
  "Getting": 28750,
  "Getty": 4043,
  "Gi": 40405,
  "Gil": 38981,
  "Give": 31033,
  "Given": 18377,
  "Giving": 39173,
  "Gl": 16389,
  "Global": 18811,
  "Go": 11478,
  "God": 15724,
  "Going": 27524,
  "Gold": 20439,
  "Good": 12350,
  "Google": 20441,
  "Got": 40084,
  "Gov": 21964,
  "Govern": 22469,
  "Government": 28747,
  "Gr": 15536,
  "Great": 19065,
  "Ground": 43416,
  "Group": 25976,
  "Growing": 36883,
  "Gu": 14484,
  "Guard": 25351,
  "Gun": 39916,
  "Guy": 38624,
  "Gy": 41532,
  "H": 725,
  "HB": 31529,
  "HER": 21770,
  "HM": 35441,
  "HOW": 44897,
  "HS": 6391,
  "HT": 14469,
  "HY": 32288,
  "Ha": 24017,
  "Had": 32054,
  "Happy": 21136,
  "Har": 17488,
  "Hard": 31574,
  "Harris": 37302,
  "Harry": 29345,
  "Has": 35634,
  "Have": 17781,
  "Having": 15852,
  "Haw": 32152,
  "Hay": 33203,
  "He": 894,
  "Health": 13716,
  "Heavy": 42016,
  "Hel": 31680,
  "Her": 13584,
  "Here": 11773,
  "Hey": 13368,
  "Hide": 46455,
  "High": 18522,
  "Hillary": 38655,
  "His": 9962,
  "Hispanic": 44272,
  "History": 38261,
  "Hit": 40900,
  "Hol": 32139,
  "Holy": 40422,
  "Hom": 37778,
  "Home": 19457,
  "Honestly": 30048,
  "Hopefully": 19204,
  "Host": 40534,
  "House": 18691,
  "How": 6179,
  "Howard": 41051,
  "However": 10462,
  "Human": 33837,
  "Hun": 38831,
  "Hundreds": 36062,
  "Hung": 41416,
  "Hyp": 47177,
  "Hz": 37825,
  "I": 100,
  "IA": 2889,
  "IAL": 11694,
  "IB": 8863,
  "IC": 2371,
  "ICA": 22556,
  "ICE": 9292,
  "ICK": 11839,
  "ICO": 13701,
  "ICT": 12894,
  "ID": 2688,
  "IDS": 23870,
  "IE": 7720,
  "IENCE": 41499,
  "IES": 7536,
  "IF": 7025,
  "IG": 5969,
  "IGHT": 8167,
  "II": 11194,
  "III": 24457,
  "ILL": 10259,
  "IM": 3755,
  "IN": 2444,
  "INESS": 28275,
  "ING": 1862,
  "INO": 30535,
  "INST": 39236,
  "IO": 6454,
  "ION": 7744,
  "IONS": 11654,
  "IP": 3808,
  "IQ": 30018,
  "IR": 5216,
  "IRD": 33853,
  "IRED": 43044,
  "IRO": 16790,
  "IS": 1729,
  "ISH": 14849,
  "ISIS": 31525,
  "ISM": 33881,
  "ISON": 27511,
  "IT": 2068,
  "ITCH": 17062,
  "ITE": 12946,
  "ITED": 33957,
  "ITH": 27698,
  "ITIES": 26824,
  "ITS": 27510,
  "ITY": 8662,
  "IV": 6372,
  "IVE": 10002,
  "IVES": 38120,
  "IX": 9482,
  "Id": 28081,
  "Ide": 42233,
  "Ident": 46692,
  "If": 1106,
  "Il": 13693,
  "Ill": 24873,
  "Im": 20470,
  "Image": 8532,
  "Imagine": 31206,
  "Imm": 37380,
  "Imp": 30281,
  "Impro": 46101,
  "In": 1121,
  "Inc": 34366,
  "Incre": 41084,
  "Increased": 46636,
  "Ind": 15248,
  "Indeed": 40566,
  "India": 11015,
  "Indust": 36926,
  "Inf": 31288,
  "Information": 38741,
  "Initial": 46187,
  "Initially": 42052,
  "Ins": 19751,
  "Instead": 23271,
  "Int": 22886,
  "Interest": 44468,
  "Interestingly": 46375,
  "International": 29743,
  "Interview": 46893,
  "Introdu": 47032,
  "Inv": 42782,
  "Investigators": 40333,
  "Iowa": 36160,
  "Ir": 34547,
  "Iran": 21336,
  "Iraq": 37590,
  "Ireland": 26737,
  "Irish": 38100,
  "Iron": 38398,
  "Ironically": 46805,
  "Is": 6209,
  "Isa": 39323,
  "Islam": 23239,
  "Islamic": 28444,
  "Isn": 43041,
  "Israel": 20517,
  "Israeli": 31303,
  "Iss": 43087,
  "It": 243,
  "Its": 30872,
  "J": 863,
  "JB": 42802,
  "JC": 31700,
  "JOHN": 47499,
  "JP": 12887,
  "JUST": 43845,
  "JV": 43117,
  "Jack": 20907,
  "Jacob": 41884,
  "James": 18031,
  "Jamie": 39633,
  "Jan": 14273,
  "Jason": 24434,
  "Jay": 27918,
  "Jean": 35689,
  "Jer": 25786,
  "Jere": 47647,
  "Jeremy": 37185,
  "Jesus": 33877,
  "Jew": 44948,
  "Jewish": 34696,
  "Jews": 44451,
  "Jim": 24021,
  "Jimmy": 35693,
  "Jo": 19842,
  "Joe": 18393,
  "John": 10567,
  "Johnson": 31894,
  "Join": 41417,
  "Jon": 27693,
  "Jones": 22681,
  "Jordan": 34057,
  "Jose": 33011,
  "Joseph": 36744,
  "Journal": 12302,
  "Jr": 40774,
  "Ju": 27324,
  "Jud": 36728,
  "Judge": 40145,
  "Jul": 22403,
  "Jun": 31036,
  "Just": 6785,
  "Justice": 29890,
  "K": 530,
  "KA": 14559,
  "KR": 13797,
  "KS": 18307,
  "Kar": 28759,
  "Ke": 19226,
  "Keefe": 35442,
  "Keep": 28407,
  "Keeping": 37840,
  "Keith": 39250,
  "Kelly": 34313,
  "Ken": 28524,
  "Kh": 30408,
  "Knowing": 40170,
  "Known": 47186,
  "Krist": 39100,
  "Ku": 43158,
  "Ky": 25301,
  "Kyle": 37468,
  "L": 574,
  "LA": 8272,
  "LAN": 20606,
  "LD": 18048,
  "LE": 3850,
  "LGBT": 35021,
  "LIN": 13748,
  "LINE": 28302,
  "LL": 6006,
  "LR": 33919,
  "LS": 10463,
  "LV": 19996,
  "La": 10766,
  "Label": 47895,
  "Labor": 43222,
  "Labour": 38664,
  "Lago": 26040,
  "Language": 46969,
  "Las": 23453,
  "Last": 10285,
  "Lat": 41933,
  "Later": 42609,
  "Latin": 44348,
  "Laura": 40330,
  "Law": 22532,
  "Le": 10350,
  "Lead": 32258,
  "Leader": 38660,
  "Leaks": 43352,
  "Leave": 39430,
  "Lee": 24403,
  "Left": 39961,
  "Leod": 24093,
  "Les": 35057,
  "Let": 7939,
  "Lev": 41157,
  "Lew": 43949,
  "Lewis": 32828,
  "Lib": 37688,
  "Liber": 38107,
  "Liberal": 44785,
  "Life": 12116,
  "Like": 13721,
  "Likewise": 47498,
  "LinkedIn": 48005,
  "Lisa": 39931,
  "Listen": 32917,
  "Little": 23675,
  "Loc": 45062,
  "Local": 24476,
  "Location": 46571,
  "Lock": 37668,
  "Log": 23345,
  "London": 23122,
  "Long": 21001,
  "Look": 15833,
  "Looking": 17629,
  "Looks": 43567,
  "Lord": 37565,
  "Los": 24485,
  "Lot": 43856,
  "Lots": 41083,
  "Lou": 36076,
  "Louis": 29923,
  "Lu": 25370,
  "Luc": 20793,
  "Luke": 34899,
  "Ly": 38683,
  "Lyn": 34052,
  "M": 448,
  "MA": 5273,
  "MAG": 41543,
  "MAN": 11350,
  "MC": 6018,
  "ME": 6570,
  "MENT": 12613,
  "MENTS": 37962,
  "MF": 41583,
  "MG": 21963,
  "MI": 7539,
  "MJ": 41062,
  "MM": 16261,
  "MN": 35306,
  "MON": 20911,
  "MP": 7629,
  "MS": 6222,
  "MT": 11674,
  "MU": 31502,
  "MY": 25518,
  "Ma": 25447,
  "Mac": 17049,
  "Mad": 21067,
  "Made": 29709,
  "Mag": 25117,
  "Mail": 23969,
  "Main": 31359,
  "Make": 18114,
  "Mal": 18764,
  "Malley": 31880,
  "Man": 6407,
  "Many": 10787,
  "Mar": 10169,
  "Marc": 28987,
  "March": 11770,
  "Marco": 33441,
  "Marg": 40420,
  "Marie": 30557,
  "Mario": 36369,
  "Mark": 10006,
  "Marsh": 40825,
  "Martin": 26690,
  "Marx": 44849,
  "Mass": 20999,
  "Master": 32187,
  "Math": 44853,
  "Matt": 19860,
  "Matthew": 33667,
  "Maximum": 48089,
  "May": 10004,
  "Maybe": 14541,
  "Mayor": 36652,
  "Mc": 13564,
  "McC": 37730,
  "Me": 5096,
  "Meanwhile": 38488,
  "Media": 18801,
  "Medic": 39096,
  "Medical": 42024,
  "Mel": 20201,
  "Members": 31339,
  "Men": 17762,
  "Mer": 24291,
  "Merc": 43965,
  "Merit": 48240,
  "Mess": 40169,
  "Metro": 36310,
  "Mex": 35695,
  "Mexico": 15780,
  "Mic": 31371,
  "Michael": 14009,
  "Mike": 15827,
  "Military": 43441,
  "Mill": 26377,
  "Min": 20086,
  "Mission": 39928,
  "Mo": 17357,
  "Mobile": 12271,
  "Modern": 39631,
  "Moh": 29880,
  "Mom": 29390,
  "Mon": 17312,
  "Money": 25256,
  "Mont": 24007,
  "Mor": 30019,
  "More": 9690,
  "Moreover": 42850,
  "Morning": 23736,
  "Most": 2895,
  "Mother": 34266,
  "Mr": 10980,
  "Mrs": 36176,
  "Ms": 13123,
  "Much": 34443,
  "Multiple": 43253,
  "Mur": 32405,
  "Murray": 42463,
  "Muslim": 19952,
  "Muslims": 40658,
  "My": 2387,
  "N": 487,
  "NA": 4444,
  "NAT": 28693,
  "NBC": 19542,
  "NC": 6905,
  "ND": 13457,
  "NE": 9009,
  "NEW": 5341,
  "NEY": 17251,
  "NF": 25356,
  "NG": 5054,
  "NI": 17640,
  "NM": 31156,
  "NN": 20057,
  "NO": 13449,
  "NOR": 25565,
  "NOT": 37049,
  "NS": 6949,
  "NT": 16966,
  "NV": 31668,
  "NW": 24430,
  "NY": 9873,
  "Na": 30612,
  "Name": 31723,
  "Nation": 32873,
  "National": 18285,
  "Native": 45339,
  "Nazis": 33171,
  "Nearly": 35346,
  "Need": 40181,
  "Neg": 37128,
  "Neigh": 43942,
  "Neil": 19992,
  "Neill": 12017,
  "Neither": 39254,
  "Net": 15721,
  "Never": 22491,
  "Nevertheless": 43872,
  "New": 4030,
  "News": 5532,
  "Next": 19192,
  "Ni": 37335,
  "Nic": 31988,
  "Nich": 41784,
  "Nin": 42047,
  "No": 3084,
  "Nobody": 18975,
  "None": 29802,
  "Nonetheless": 46709,
  "Nor": 29723,
  "Normally": 40113,
  "North": 11073,
  "Not": 7199,
  "Notable": 48667,
  "Note": 27728,
  "Notes": 44691,
  "Nothing": 19847,
  "Notice": 47077,
  "Nov": 18187,
  "November": 21206,
  "Now": 5975,
  "Num": 48184,
  "Number": 43623,
  "O": 673,
  "OA": 16024,
  "OB": 7912,
  "OC": 4571,
  "OCK": 13181,
  "OD": 7111,
  "OG": 10207,
  "OH": 11979,
  "OK": 9335,
  "OL": 3384,
  "OM": 3765,
  "OME": 25073,
  "ON": 2191,
  "ONDON": 4524,
  "ONE": 16646,
  "OO": 9332,
  "OP": 5733,
  "OPE": 23075,
  "OR": 3411,
  "ORN": 29242,
  "ORS": 18347,
  "ORT": 12154,
  "ORY": 26116,
  "OS": 3196,
  "OSED": 41743,
  "OT": 3293,
  "OTE": 28002,
  "OTO": 33770,
  "OTUS": 24678,
  "OU": 5061,
  "OURCE": 9403,
  "OUT": 29891,
  "OV": 13565,
  "OW": 4581,
  "Ob": 24567,
  "Obama": 33382,
  "Object": 46674,
  "Obviously": 12455,
  "October": 20144,
  "Of": 10643,
  "Officers": 34911,
  "Official": 34111,
  "Officials": 35779,
  "Often": 39972,
  "Oh": 7516,
  "Ohio": 26603,
  "Okay": 33082,
  "Ol": 33453,
  "Old": 26605,
  "On": 4148,
  "Once": 11475,
  "One": 3762,
  "Online": 19449,
  "Only": 19933,
  "Open": 25266,
  "Operation": 35360,
  "Opp": 39892,
  "Or": 11094,
  "Ord": 43670,
  "Order": 45613,
  "Oregon": 35287,
  "Originally": 44622,
  "Os": 11078,
  "Other": 24989,
  "Others": 43813,
  "Otherwise": 42815,
  "Our": 2522,
  "Out": 14944,
  "Outside": 43840,
  "Over": 10777,
  "Overall": 28965,
  "Own": 40839,
  "P": 510,
  "PA": 3439,
  "PART": 41623,
  "PC": 4794,
  "PD": 6153,
  "PDF": 38506,
  "PER": 21260,
  "PF": 16088,
  "PL": 7205,
  "PM": 5683,
  "PORT": 20275,
  "PP": 5756,
  "PR": 4454,
  "PRES": 29679,
  "PS": 3888,
  "Pa": 28058,
  "Page": 21823,
  "Pal": 23166,
  "Palestinian": 28875,
  "Par": 22011,
  "Part": 4741,
  "Particip": 44759,
  "Pat": 18276,
  "Patrick": 32811,
  "Paul": 12083,
  "Pay": 24522,
  "Pen": 32884,
  "People": 4763,
  "Per": 20823,
  "Perhaps": 32458,
  "Pers": 43020,
  "Personal": 43854,
  "Personally": 40026,
  "Peter": 22611,
  "Ph": 17297,
  "Philipp": 35196,
  "Phone": 40980,
  "Photo": 2411,
  "Photos": 38580,
  "Phys": 43827,
  "Pl": 16213,
  "Plan": 35351,
  "Playing": 37647,
  "Please": 6715,
  "Po": 26170,
  "Pod": 29138,
  "Point": 20416,
  "Pol": 32400,
  "Police": 9497,
  "Political": 39548,
  "Politics": 37090,
  "Poll": 42845,
  "Pop": 30255,
  "Pope": 36017,
  "Population": 48653,
  "Pos": 42848,
  "Post": 21585,
  "Posted": 31195,
  "Pot": 35516,
  "Power": 20645,
  "Pr": 21077,
  "Pre": 22763,
  "Pres": 28917,
  "President": 6517,
  "Press": 20142,
  "Previously": 45095,
  "Prime": 25973,
  "Prior": 41542,
  "Pro": 10653,
  "Probably": 35882,
  "Process": 46202,
  "Prof": 42133,
  "Professional": 45520,
  "Professor": 44385,
  "Project": 33347,
  "Prom": 35396,
  "Proof": 46484,
  "Prop": 41895,
  "Prosecutors": 44693,
  "Protect": 41357,
  "Prov": 35746,
  "Ps": 13438,
  "Public": 22649,
  "Pur": 39740,
  "Putting": 43595,
  "Py": 42734,
  "Q": 1864,
  "QU": 15513,
  "Qaeda": 25697,
  "Qaida": 28448,
  "Qu": 12444,
  "Que": 31178,
  "Question": 45641,
  "Quite": 41738,
  "R": 500,
  "RA": 4396,
  "RB": 26770,
  "RC": 5199,
  "RE": 4629,
  "READ": 29825,
  "REAM": 28057,
  "RELATED": 38815,
  "RI": 6934,
  "RIC": 36570,
  "RO": 8727,
  "RT": 13963,
  "Ra": 27625,
  "Race": 40246,
  "Rachel": 41415,
  "Rain": 23074,
  "Ram": 32361,
  "Rand": 38789,
  "Rare": 46543,
  "Rather": 35716,
  "Ray": 24185,
  "Re": 9064,
  "Read": 25439,
  "Real": 17105,
  "Really": 30327,
  "Rec": 21109,
  "Recently": 38386,
  "Recommend": 48758,
  "Ref": 31842,
  "Refer": 48310,
  "Reg": 23007,
  "Regarding": 44401,
  "Regardless": 38861,
  "Rel": 29806,
  "Related": 22816,
  "Release": 45036,
  "Rem": 31157,
  "Remember": 28669,
  "Render": 48440,
  "Rep": 22026,
  "Report": 20697,
  "Reporting": 1670,
  "Reports": 32339,
  "Represent": 28588,
  "Republican": 33364,
  "Republicans": 39044,
  "Res": 20028,
  "Resp": 44036,
  "Rest": 31921,
  "Result": 48136,
  "Ret": 27814,
  "Reuters": 1251,
  "Rev": 38494,
  "Rich": 28295,
  "Richard": 27845,
  "Rick": 30250,
  "Right": 13984,
  "Ro": 27110,
  "Rob": 18776,
  "Robert": 25244,
  "Roberts": 42178,
  "Rod": 30055,
  "Rom": 38184,
  "Ron": 27674,
  "Ros": 36354,
  "Rub": 40821,
  "Run": 33177,
  "Rush": 45237,
  "Russ": 42931,
  "Russia": 15685,
  "Russian": 14836,
  "S": 104,
  "SA": 3603,
  "SAN": 9300,
  "SC": 3632,
  "SD": 6243,
  "SE": 3388,
  "SEE": 32739,
  "SF": 23646,
  "SH": 10237,
  "SHIP": 41201,
  "SL": 11160,
  "SM": 15153,
  "SO": 14587,
  "SP": 4186,
  "SPEC": 45352,
  "SR": 17973,
  "SS": 8108,
  "ST": 4014,
  "STAR": 39602,
  "SU": 10466,
  "SY": 21134,
  "Sadly": 38778,
  "Said": 47117,
  "Sam": 21169,
  "San": 16033,
  "Sand": 40213,
  "Sanders": 45388,
  "Sarah": 33671,
  "Sat": 29918,
  "Saturday": 17643,
  "Sav": 36138,
  "Sax": 44657,
  "Sc": 12645,
  "Scan": 42450,
  "Sch": 18077,
  "Scientists": 40816,
  "Score": 36088,
  "Scotland": 37022,
  "Script": 30276,
  "Scroll": 45133,
  "Se": 14696,
  "Sean": 25285,
  "Search": 39954,
  "Sec": 33099,
  "Second": 32703,
  "Secret": 42592,
  "Secretary": 36035,
  "Section": 43480,
  "Security": 36090,
  "See": 19224,
  "Self": 39762,
  "Sem": 37504,
  "Semitic": 21004,
  "Semitism": 19155,
  "Sen": 24365,
  "Senate": 35126,
  "Senator": 36328,
  "Senior": 33867,
  "Serv": 44175,
  "Setting": 46765,
  "Seven": 35731,
  "Several": 29182,
  "Sex": 35581,
  "Sh": 3609,
  "Shar": 40069,
  "Share": 11957,
  "Sharp": 45949,
  "She": 2515,
  "Sher": 31722,
  "Ship": 44098,
  "Shock": 44124,
  "Shop": 39948,
  "Shortly": 44737,
  "Should": 31231,
  "Show": 27477,
  "Shut": 42147,
  "Side": 42530,
  "Sign": 25675,
  "Sil": 23719,
  "Sim": 29656,
  "Similar": 46444,
  "Similarly": 45400,
  "Simple": 45093,
  "Simply": 42577,
  "Since": 11321,
  "Sir": 33049,
  "Sit": 44683,
  "Site": 40122,
  "Six": 27696,
  "Slow": 43725,
  "Sm": 23996,
  "Smith": 14124,
  "Sn": 37790,
  "Snow": 31100,
  "So": 2847,
  "Social": 28565,
  "Soft": 38805,
  "Sol": 39524,
  "Solar": 44559,
  "Sold": 44399,
  "Some": 6323,
  "Someone": 29375,
  "Something": 27827,
  "Sometimes": 13624,
  "Soon": 42305,
  "Sort": 48117,
  "Sources": 44974,
  "South": 10050,
  "Soviet": 37284,
  "Sp": 12582,
  "Spe": 29235,
  "Speaking": 38777,
  "Special": 25110,
  "Specifically": 45875,
  "Spirit": 43862,
  "Spot": 32110,
  "Squ": 38378,
  "St": 5320,
  "Stand": 36303,
  "Star": 4239,
  "Starting": 39777,
  "State": 13360,
  "Statement": 46791,
  "Stay": 34112,
  "Ste": 21426,
  "Step": 25093,
  "Stephen": 30273,
  "Steven": 33184,
  "Still": 31133,
  "Stop": 22174,
  "Storm": 36025,
  "Story": 39630,
  "Str": 29116,
  "Stra": 41695,
  "Strange": 46093,
  "Stre": 44382,
  "Strong": 30558,
  "Student": 43541,
  "Students": 29413,
  "Study": 45784,
  "Style": 31774,
  "Sub": 23055,
  "Subject": 47159,
  "Submit": 47834,
  "Subscribe": 41848,
  "Such": 27331,
  "Suddenly": 44711,
  "Sun": 8816,
  "Sund": 45748,
  "Sunday": 21583,
  "Sup": 41192,
  "Super": 16713,
  "Supp": 33661,
  "Support": 38873,
  "Supporters": 45585,
  "Sur": 27526,
  "Sure": 32541,
  "Sw": 15417,
  "Sy": 35615,
  "Syn": 46437,
  "Syria": 41897,
  "T": 565,
  "TA": 3847,
  "TE": 6433,
  "TER": 7831,
  "TERN": 37683,
  "TF": 20249,
  "TH": 3732,
  "THE": 13354,
  "THIS": 39648,
  "TL": 22290,
  "TO": 6390,
  "TON": 8081,
  "TP": 15993,
  "TRUMP": 47207,
  "TS": 2685,
  "TT": 14543,
  "TV": 2915,
  "TY": 6175,
  "Table": 41836,
  "Take": 21031,
  "Taking": 35490,
  "Talk": 27743,
  "Talking": 42943,
  "Target": 41858,
  "Te": 16215,
  "Team": 20158,
  "Ted": 40348,
  "Teen": 39556,
  "Ten": 28612,
  "Ter": 32579,
  "Terror": 35568,
  "Tex": 40175,
  "Texas": 22456,
  "Th": 11329,
  "Thank": 13987,
  "Thankfully": 42948,
  "Thanks": 22086,
  "That": 1711,
  "The": 133,
  "Their": 16837,
  "Then": 12948,
  "Ther": 43958,
  "There": 970,
  "Therefore": 32730,
  "These": 4528,
  "They": 1213,
  "Things": 22616,
  "Think": 26644,
  "Third": 42200,
  "This": 713,
  "Thom": 33050,
  "Thomas": 25089,
  "Those": 11195,
  "Though": 26223,
  "Thousands": 33383,
  "Three": 15622,
  "Through": 23803,
  "Throughout": 36428,
  "Thursday": 23023,
  "Thus": 42702,
  "Tickets": 44338,
  "Tim": 23031,
  "Time": 14699,
  "To": 3972,
  "Today": 5625,
  "Tom": 15691,
  "Tomorrow": 38849,
  "Tony": 26156,
  "Too": 10365,
  "Top": 14323,
  "Tr": 12667,
  "Trade": 35996,
  "Traditional": 45461,
  "Trans": 19163,
  "Travel": 39258,
  "Tre": 33241,
  "Tro": 41141,
  "True": 36948,
  "Trump": 7565,
  "Trust": 18823,
  "Tu": 40768,
  "Turkey": 33133,
  "Turn": 30093,
  "Tw": 23638,
  "Tweet": 44445,
  "Twenty": 37703,
  "Twitter": 22838,
  "Two": 9058,
  "U": 791,
  "UB": 12027,
  "UC": 12945,
  "UD": 13083,
  "UE": 9162,
  "UI": 18157,
  "UK": 10494,
  "ULL": 25792,
  "UM": 5725,
  "UN": 4154,
  "UNE": 30031,
  "UP": 9673,
  "UPDATE": 34543,
  "UR": 2492,
  "URE": 12435,
  "URN": 28267,
  "US": 3048,
  "USA": 9080,
  "USS": 16551,
  "UST": 11120,
  "UT": 6972,
  "UTERS": 30332,
  "UTH": 37985,
  "UV": 31812,
  "Ultimately": 32591,
  "Un": 9685,
  "Und": 42061,
  "Under": 17245,
  "Understanding": 44188,
  "Unfortunately": 16861,
  "Unique": 47814,
  "United": 20556,
  "Unless": 33757,
  "Unlike": 38243,
  "Until": 22392,
  "Up": 10926,
  "Update": 39962,
  "Upon": 39986,
  "User": 44518,
  "Using": 36949,
  "Usually": 35808,
  "Ut": 41967,
  "V": 846,
  "VA": 9788,
  "VC": 14858,
  "VD": 28732,
  "VEL": 16641,
  "VI": 15176,
  "VIDEO": 36662,
  "VIEW": 21735,
  "VILLE": 9199,
  "VIS": 23111,
  "VM": 20954,
  "VO": 32956,
  "VP": 12015,
  "VR": 13055,
  "VS": 11859,
  "VT": 35707,
  "Va": 25546,
  "Very": 25101,
  "Veter": 40151,
  "Vict": 32094,
  "Victoria": 38672,
  "Video": 17967,
  "View": 22130,
  "Virginia": 38477,
  "Vis": 27654,
  "Vote": 39992,
  "Vs": 13436,
  "W": 771,
  "WARNING": 46112,
  "WASHINGTON": 5762,
  "WATCH": 42050,
  "WB": 36489,
  "WHERE": 46298,
  "WHO": 32919,
  "WP": 28435,
  "WS": 13691,
  "WT": 25982,
  "Wa": 38065,
  "Wait": 36446,
  "Wal": 30888,
  "Want": 38576,
  "War": 20096,
  "Ward": 41627,
  "Warren": 41914,
  "Was": 32112,
  "Washington": 22247,
  "Watch": 14287,
  "We": 170,
  "Weak": 47025,
  "Wednesday": 26152,
  "Weiss": 48069,
  "Welcome": 25194,
  "Well": 8346,
  "Were": 43822,
  "West": 9634,
  "Western": 27467,
  "Wh": 14447,
  "What": 2264,
  "Whatever": 25216,
  "Wheel": 43560,
  "When": 1779,
  "Where": 13841,
  "Whereas": 45210,
  "Whether": 18259,
  "Which": 32251,
  "While": 5771,
  "White": 15725,
  "Who": 12375,
  "Whoever": 39858,
  "Why": 7608,
  "Wiki": 46929,
  "Wild": 30909,
  "Will": 17485,
  "William": 33531,
  "Wilson": 38455,
  "Winter": 33120,
  "With": 3908,
  "Within": 35469,
  "Without": 20867,
  "Women": 19814,
  "Wood": 27850,
  "Word": 44051,
  "Working": 33105,
  "World": 10988,
  "Would": 29042,
  "Writ": 45987,
  "Writing": 16332,
  "X": 1000,
  "XL": 35826,
  "XX": 18313,
  "XY": 31578,
  "Y": 975,
  "YD": 38237,
  "YOU": 38158,
  "YR": 23068,
  "Yeah": 14783,
  "Year": 22004,
  "Years": 43937,
  "Yellow": 43795,
  "Yes": 9904,
  "Yesterday": 31863,
  "Yet": 34995,
  "Yo": 33543,
  "You": 1185,
  "YouTube": 36169,
  "Your": 12861,
  "Z": 1301,
  "ZE": 33288,
  "ZI": 40195,
  "ZX": 46096,
  "Ze": 39516,
  "a": 102,
  "aa": 6621,
  "aan": 23081,
  "ab": 873,
  "abad": 7826,
  "abal": 21781,
  "abb": 8448,
  "abe": 5084,
  "aber": 31810,
  "abiding": 35149,
  "ability": 4484,
  "abin": 17531,
  "abl": 23200,
  "able": 868,
  "ables": 6058,
  "ablish": 37878,
  "ably": 4735,
  "abol": 34342,
  "abortion": 27275,
  "about": 9006,
  "above": 23444,
  "abs": 10155,
  "absolutely": 24002,
  "abul": 42278,
  "abuse": 33045,
  "ac": 1043,
  "aca": 11893,
  "acas": 19533,
  "acc": 7904,
  "accept": 35468,
  "access": 28300,
  "accompan": 49590,
  "accompanied": 46476,
  "account": 36617,
  "ace": 4450,
  "aced": 8988,
  "acement": 23423,
  "acer": 11937,
  "acet": 26799,
  "acey": 10042,
  "ach": 1488,
  "achable": 32885,
  "ache": 7374,
  "ached": 12552,
  "acher": 8365,
  "achers": 19040,
  "aches": 11322,
  "aching": 13341,
  "achment": 26284,
  "acies": 15668,
  "acing": 7575,
  "acious": 15525,
  "aciously": 36845,
  "acist": 25058,
  "acists": 44852,
  "acity": 18583,
  "ack": 2990,
  "acked": 10074,
  "acker": 13374,
  "ackers": 28785,
  "acking": 7361,
  "ackle": 37948,
  "acks": 3400,
  "acle": 24618,
  "aclysm": 43464,
  "aco": 12921,
  "acons": 30267,
  "act": 7257,
  "acted": 29179,
  "action": 10845,
  "actions": 28929,
  "actor": 24625,
  "acus": 40896,
  "acy": 5073,
  "ad": 625,
  "ada": 2095,
  "adal": 23073,
  "add": 4917,
  "adden": 23004,
  "addock": 39244,
  "address": 44547,
  "addy": 14655,
  "ade": 1829,
  "aded": 7560,
  "adel": 24451,
  "ademic": 41551,
  "aden": 20223,
  "ader": 7292,
  "ades": 4216,
  "adi": 5416,
  "adic": 32944,
  "adies": 40979,
  "adin": 28585,
  "ading": 8423,
  "adiq": 27781,
  "adj": 41587,
  "adjust": 42009,
  "administ": 31302,
  "adr": 27968,
  "ads": 7842,
  "adv": 28006,
  "ady": 8772,
  "ae": 4791,
  "aed": 20380,
  "ael": 11089,
  "af": 2001,
  "aff": 3707,
  "affe": 17459,
  "afia": 36633,
  "afort": 46531,
  "after": 10669,
  "ag": 1073,
  "aga": 6080,
  "against": 22268,
  "agan": 7060,
  "aganda": 40108,
  "agar": 12969,
  "agascar": 48459,
  "agate": 32814,
  "age": 1580,
  "aged": 4628,
  "agen": 10955,
  "agency": 26904,
  "ages": 3443,
  "agg": 7165,
  "agged": 11290,
  "agging": 12771,
  "aggressive": 35844,
  "agic": 25725,
  "aging": 6257,
  "agna": 33281,
  "agnetic": 44650,
  "ago": 6643,
  "agog": 33395,
  "agon": 11408,
  "agree": 44804,
  "ags": 8299,
  "agu": 11993,
  "ague": 17558,
  "agues": 27379,
  "ah": 895,
  "aha": 11695,
  "ahan": 10048,
  "ahn": 8891,
  "ahs": 25118,
  "ahu": 17421,
  "ai": 1439,
  "aic": 20620,
  "aii": 36729,
  "ail": 3760,
  "ailable": 38484,
  "ailed": 13355,
  "ailing": 8459,
  "ails": 11791,
  "aim": 7146,
  "ain": 1851,
  "aina": 23482,
  "ained": 7153,
  "ainer": 22022,
  "aining": 8173,
  "ains": 5069,
  "aint": 12042,
  "air": 2456,
  "aire": 9556,
  "airs": 18022,
  "airy": 34506,
  "ais": 5655,
  "ait": 5236,
  "aith": 22724,
  "aj": 1176,
  "ak": 677,
  "aka": 5870,
  "akable": 30363,
  "ake": 5113,
  "aked": 8435,
  "aken": 12578,
  "aker": 4218,
  "akers": 6650,
  "akery": 45600,
  "akes": 5556,
  "aking": 7520,
  "akings": 32711,
  "aks": 6629,
  "al": 337,
  "ala": 2331,
  "alan": 17330,
  "albeit": 41324,
  "ald": 5618,
  "aldo": 23340,
  "ale": 1627,
  "aled": 9389,
  "ales": 4575,
  "alf": 10595,
  "algia": 39883,
  "ali": 3644,
  "alia": 6956,
  "alid": 29849,
  "alien": 38968,
  "aligned": 36967,
  "aling": 8279,
  "alis": 21133,
  "ality": 6948,
  "alk": 9707,
  "all": 1250,
  "alla": 13421,
  "allah": 18897,
  "alle": 11186,
  "alled": 9315,
  "alli": 19273,
  "alling": 9391,
  "allion": 37696,
  "allow": 25487,
  "allows": 37984,
  "alls": 12019,
  "ally": 2368,
  "alm": 30293,
  "almost": 26949,
  "along": 20774,
  "als": 1536,
  "alsa": 37987,
  "alse": 33896,
  "also": 19726,
  "alt": 3967,
  "altern": 34268,
  "alth": 29547,
  "alties": 31438,
  "always": 30035,
  "aly": 7776,
  "am": 424,
  "ama": 2583,
  "amar": 21216,
  "amara": 27086,
  "amas": 16711,
  "amation": 31936,
  "amb": 3146,
  "amber": 19383,
  "ame": 4344,
  "amed": 7486,
  "ament": 5511,
  "aments": 26494,
  "ames": 12336,
  "ami": 5602,
  "amic": 21515,
  "aming": 9708,
  "ammad": 41007,
  "among": 31636,
  "amount": 31233,
  "amp": 3914,
  "amps": 9782,
  "ams": 7042,
  "amus": 24389,
  "amy": 12463,
  "an": 260,
  "ana": 1113,
  "anas": 16264,
  "anc": 3290,
  "ance": 2389,
  "anced": 16325,
  "ances": 5332,
  "ancing": 7710,
  "ancy": 9875,
  "and": 463,
  "anda": 5219,
  "andal": 17856,
  "andals": 33222,
  "anded": 13833,
  "andel": 25849,
  "ander": 6072,
  "andering": 32741,
  "anders": 37429,
  "anding": 20515,
  "andowski": 23639,
  "ands": 8771,
  "andy": 10708,
  "ane": 1728,
  "aned": 22597,
  "anes": 11372,
  "ang": 1097,
  "ange": 10987,
  "anged": 17770,
  "anger": 8395,
  "angering": 25913,
  "anging": 23786,
  "angle": 14982,
  "angles": 38756,
  "angling": 26325,
  "ango": 12379,
  "anguard": 40019,
  "ani": 1543,
  "anic": 26728,
  "anim": 25042,
  "animous": 43229,
  "aning": 19266,
  "anity": 30854,
  "ank": 3153,
  "anked": 22697,
  "anking": 20327,
  "anks": 10950,
  "ann": 2279,
  "anna": 4057,
  "annah": 25984,
  "anned": 12788,
  "anny": 13749,
  "ano": 2601,
  "another": 30303,
  "anova": 18980,
  "ans": 1253,
  "ansen": 21205,
  "answer": 27740,
  "ant": 927,
  "anted": 17184,
  "anti": 10865,
  "antic": 26970,
  "anticipated": 19874,
  "antine": 43212,
  "antis": 22122,
  "antly": 12106,
  "antom": 37203,
  "anton": 19425,
  "ants": 3277,
  "anty": 36488,
  "any": 3785,
  "anya": 12837,
  "ao": 3853,
  "aos": 34317,
  "ap": 1115,
  "ape": 5776,
  "aped": 14677,
  "aper": 15888,
  "apers": 24225,
  "apes": 22179,
  "aph": 8258,
  "apolog": 30961,
  "app": 3340,
  "appa": 22181,
  "apped": 11251,
  "apper": 11688,
  "apping": 12040,
  "appointed": 19051,
  "appro": 27666,
  "appropriate": 23360,
  "aps": 7527,
  "apse": 26053,
  "aq": 18611,
  "aquin": 23186,
  "ar": 271,
  "ara": 1742,
  "arant": 19112,
  "aration": 36466,
  "arc": 9636,
  "arch": 13161,
  "archs": 29131,
  "archy": 37208,
  "ard": 1120,
  "arded": 16230,
  "arding": 16014,
  "ardo": 6782,
  "ardon": 21962,
  "are": 1322,
  "area": 7907,
  "ared": 6537,
  "aren": 9475,
  "ares": 5347,
  "arest": 18759,
  "aret": 19508,
  "areth": 35893,
  "arette": 43650,
  "arg": 5384,
  "arger": 28186,
  "ari": 1512,
  "aria": 8954,
  "arial": 27774,
  "arian": 9063,
  "arians": 13291,
  "ariat": 18014,
  "aries": 5119,
  "arij": 43482,
  "arily": 19048,
  "aring": 5867,
  "ario": 7718,
  "aris": 17661,
  "arist": 33547,
  "arity": 21528,
  "ark": 3994,
  "arkable": 36774,
  "arl": 11278,
  "arm": 4526,
  "armac": 28281,
  "armed": 17651,
  "arming": 21728,
  "arms": 26852,
  "arn": 4422,
  "aro": 5191,
  "around": 13837,
  "arr": 6166,
  "arranted": 34193,
  "arrass": 35700,
  "arrell": 29817,
  "arry": 12795,
  "ars": 2726,
  "arson": 24858,
  "art": 2013,
  "arte": 13775,
  "arted": 26587,
  "arten": 18567,
  "arter": 24391,
  "arth": 16880,
  "artment": 27699,
  "ary": 1766,
  "as": 281,
  "asc": 8631,
  "ascus": 47362,
  "ase": 3175,
  "ased": 11835,
  "aser": 12425,
  "asers": 22476,
  "ases": 9354,
  "ash": 1671,
  "ashed": 9512,
  "ashes": 14829,
  "ashing": 8141,
  "ashington": 40886,
  "asing": 7913,
  "asio": 20821,
  "asion": 27720,
  "asionally": 47030,
  "asions": 38258,
  "ask": 4970,
  "asking": 30954,
  "asm": 16836,
  "ason": 12231,
  "asonic": 38703,
  "asonry": 42687,
  "asons": 32781,
  "asp": 9331,
  "ass": 2401,
  "assad": 44642,
  "assador": 45690,
  "asse": 10627,
  "asser": 16151,
  "assets": 44922,
  "assies": 47473,
  "assing": 13613,
  "assion": 22947,
  "assment": 34145,
  "ast": 1988,
  "aste": 14631,
  "asted": 14317,
  "aster": 8831,
  "asters": 22125,
  "astery": 42566,
  "astic": 11599,
  "astical": 40707,
  "asury": 44379,
  "asus": 47829,
  "asy": 17400,
  "at": 415,
  "ata": 2186,
  "atable": 18564,
  "atch": 11175,
  "atched": 27407,
  "ate": 877,
  "atech": 41072,
  "ated": 1070,
  "ateful": 39264,
  "ategic": 32281,
  "ategy": 41220,
  "atel": 26591,
  "ately": 7223,
  "atem": 43371,
  "ater": 5109,
  "ateral": 36258,
  "atern": 36359,
  "aternal": 33305,
  "aternity": 36156,
  "aters": 11837,
  "ates": 1626,
  "ateur": 33102,
  "ath": 2681,
  "athe": 23872,
  "ather": 13860,
  "atherine": 38687,
  "athetic": 41658,
  "athom": 29125,
  "aths": 31360,
  "athy": 17543,
  "ati": 3648,
  "atic": 5183,
  "atically": 23050,
  "atican": 47474,
  "atics": 22442,
  "ating": 1295,
  "ation": 1258,
  "ational": 5033,
  "ations": 1635,
  "atis": 27048,
  "ative": 3693,
  "atively": 10481,
  "atives": 11649,
  "atom": 40144,
  "ator": 2630,
  "atorial": 26202,
  "atories": 28172,
  "ators": 3629,
  "atory": 5257,
  "atra": 15560,
  "atri": 24879,
  "ats": 2923,
  "att": 2611,
  "atta": 10460,
  "attack": 20505,
  "attacks": 25764,
  "atten": 21739,
  "atter": 7933,
  "attering": 24203,
  "atti": 13528,
  "atum": 15368,
  "atur": 8367,
  "ature": 18830,
  "au": 1180,
  "auc": 17527,
  "aucus": 43710,
  "aud": 5247,
  "audio": 24846,
  "auer": 9994,
  "aug": 12361,
  "augh": 11675,
  "aught": 19906,
  "aul": 6695,
  "ault": 8839,
  "aun": 7381,
  "aunder": 39686,
  "aundering": 31734,
  "aunted": 19264,
  "ause": 17498,
  "authent": 40907,
  "author": 11515,
  "authored": 32317,
  "auto": 39545,
  "automatic": 27106,
  "av": 1469,
  "ava": 8604,
  "avan": 10937,
  "avanaugh": 39761,
  "ave": 4097,
  "aven": 10570,
  "aver": 9903,
  "aves": 9419,
  "avin": 27374,
  "aving": 13286,
  "avor": 22042,
  "avour": 18633,
  "aw": 1584,
  "awa": 6498,
  "awaited": 18536,
  "away": 4384,
  "ax": 3631,
  "ay": 857,
  "ayed": 12198,
  "ayers": 24950,
  "aying": 11918,
  "ays": 4113,
  "az": 1222,
  "aze": 10129,
  "azed": 16314,
  "azi": 12934,
  "azines": 45462,
  "azz": 7706,
  "b": 428,
  "ba": 3178,
  "bably": 46363,
  "bach": 12842,
  "back": 1644,
  "backed": 6996,
  "background": 46776,
  "backs": 6205,
  "bad": 10999,
  "bag": 14118,
  "bal": 8667,
  "ban": 7384,
  "band": 9484,
  "bank": 5760,
  "banks": 27045,
  "bar": 4901,
  "based": 805,
  "battle": 39836,
  "bb": 14141,
  "be": 1610,
  "beat": 13825,
  "beaut": 28878,
  "bec": 13639,
  "because": 13437,
  "bed": 5134,
  "before": 23033,
  "beh": 24170,
  "behavior": 40397,
  "being": 9442,
  "beit": 23274,
  "bek": 31211,
  "bel": 8494,
  "bell": 11312,
  "ben": 5720,
  "bench": 31240,
  "bent": 35273,
  "ber": 1943,
  "berg": 2865,
  "berger": 11178,
  "berry": 8132,
  "bers": 9569,
  "bert": 6747,
  "bery": 23138,
  "bes": 16768,
  "bet": 14600,
  "bey": 27993,
  "bi": 5605,
  "big": 8527,
  "bill": 24916,
  "binding": 28378,
  "bing": 6721,
  "bird": 15886,
  "bishop": 32841,
  "bit": 5881,
  "bl": 3662,
  "black": 14178,
  "ble": 5225,
  "blems": 42216,
  "bler": 26539,
  "bles": 11060,
  "bling": 12947,
  "blocking": 38797,
  "blog": 24635,
  "blogspot": 41057,
  "blow": 42671,
  "blown": 22625,
  "blue": 22128,
  "bly": 27104,
  "bm": 43531,
  "boarding": 20592,
  "boards": 15659,
  "boats": 34015,
  "body": 9773,
  "bole": 38373,
  "bons": 16830,
  "book": 6298,
  "books": 17788,
  "bor": 12514,
  "border": 16720,
  "born": 5400,
  "borne": 17080,
  "bors": 19357,
  "boss": 40426,
  "bot": 12749,
  "both": 17143,
  "bound": 4092,
  "bourg": 26695,
  "bow": 14271,
  "boy": 9902,
  "boys": 22505,
  "br": 3809,
  "brate": 39518,
  "bre": 7805,
  "breaker": 19759,
  "breaking": 10536,
  "breaks": 41343,
  "bridge": 7820,
  "bring": 29715,
  "bringing": 44710,
  "bris": 39927,
  "brush": 30241,
  "bs": 4311,
  "bt": 25933,
  "building": 11557,
  "bul": 21343,
  "bull": 17559,
  "bum": 30406,
  "burg": 3321,
  "bury": 4232,
  "bush": 23009,
  "but": 4297,
  "by": 1409,
  "byn": 44296,
  "bys": 25372,
  "c": 438,
  "ca": 3245,
  "cake": 31818,
  "cal": 11762,
  "caliber": 29422,
  "call": 16395,
  "called": 4155,
  "calling": 33485,
  "campaign": 37532,
  "can": 7424,
  "cancer": 33596,
  "cand": 32503,
  "canon": 47696,
  "cap": 10906,
  "capacity": 25421,
  "capt": 18543,
  "car": 5901,
  "card": 6940,
  "cas": 20363,
  "case": 11173,
  "cases": 28162,
  "cast": 5182,
  "casts": 25303,
  "cat": 8729,
  "cause": 27037,
  "cc": 7309,
  "ce": 1755,
  "ced": 7618,
  "ceive": 6550,
  "ceiver": 44168,
  "cele": 31828,
  "cell": 7841,
  "cend": 34097,
  "cent": 6342,
  "centered": 32055,
  "century": 11046,
  "cept": 16771,
  "cer": 7742,
  "cerned": 37701,
  "cerning": 41770,
  "cers": 19528,
  "cert": 25782,
  "certain": 31097,
  "ces": 4643,
  "cess": 19348,
  "cest": 35678,
  "cf": 19911,
  "ch": 611,
  "cha": 7794,
  "chair": 13599,
  "chal": 27126,
  "chance": 32207,
  "change": 14035,
  "char": 24262,
  "character": 23375,
  "che": 2871,
  "check": 15954,
  "checked": 41641,
  "checking": 33851,
  "ched": 3804,
  "chel": 22448,
  "chell": 25365,
  "cher": 5260,
  "chers": 7873,
  "chery": 26154,
  "ches": 5559,
  "chester": 17419,
  "chief": 15276,
  "children": 15097,
  "ching": 7968,
  "chio": 27680,
  "chn": 13212,
  "choice": 24335,
  "chool": 27085,
  "cht": 8797,
  "ci": 2520,
  "cial": 15585,
  "cience": 30836,
  "cil": 17286,
  "cill": 16412,
  "cing": 11162,
  "cious": 22191,
  "cipl": 40146,
  "cipled": 46561,
  "circ": 31362,
  "cise": 44568,
  "ck": 2420,
  "cker": 8956,
  "cl": 3998,
  "clad": 25769,
  "claim": 31628,
  "class": 4684,
  "classic": 41755,
  "classified": 34871,
  "clave": 38121,
  "cle": 16008,
  "clear": 18763,
  "cler": 39255,
  "client": 38557,
  "climate": 36695,
  "clock": 17036,
  "closed": 25315,
  "closure": 26085,
  "cloth": 41262,
  "cluded": 26441,
  "clusion": 27953,
  "clusive": 15871,
  "clusively": 39830,
  "co": 876,
  "code": 20414,
  "cold": 33912,
  "coll": 27454,
  "collar": 27543,
  "com": 175,
  "come": 19807,
  "comes": 32696,
  "coming": 7936,
  "comm": 24302,
  "comments": 46788,
  "common": 27278,
  "commun": 27217,
  "communication": 24741,
  "community": 28746,
  "comp": 11828,
  "company": 24233,
  "complete": 27527,
  "complex": 42290,
  "compliance": 33182,
  "computer": 36327,
  "con": 3865,
  "concert": 34420,
  "conf": 17075,
  "confidence": 22326,
  "connect": 24501,
  "cons": 10998,
  "conservative": 36947,
  "consider": 33394,
  "cont": 10800,
  "contin": 27887,
  "continental": 17308,
  "continue": 32757,
  "control": 17665,
  "controlled": 9947,
  "cool": 24336,
  "coord": 39219,
  "cop": 30551,
  "cor": 7215,
  "cott": 17083,
  "could": 17304,
  "count": 11432,
  "counter": 24774,
  "cover": 20401,
  "cr": 8344,
  "crazy": 35852,
  "cre": 34868,
  "created": 27367,
  "crime": 18608,
  "criminal": 34928,
  "cript": 26083,
  "crit": 35031,
  "cry": 36896,
  "cs": 11365,
  "ct": 3894,
  "ction": 14970,
  "ctions": 16849,
  "ctive": 32740,
  "ctr": 47732,
  "ctuary": 35584,
  "cul": 13300,
  "culation": 28169,
  "cule": 38884,
  "culture": 27238,
  "cup": 21033,
  "cut": 8267,
  "cutting": 17956,
  "cy": 4469,
  "cycl": 19297,
  "d": 417,
  "da": 6106,
  "daily": 16624,
  "dale": 5610,
  "dam": 15177,
  "dan": 14856,
  "danger": 29651,
  "dark": 30423,
  "dash": 42360,
  "date": 10672,
  "day": 1208,
  "days": 7033,
  "dd": 16134,
  "de": 2794,
  "dead": 18758,
  "deal": 14861,
  "death": 24483,
  "dec": 11127,
  "ded": 17452,
  "deep": 13637,
  "def": 9232,
  "defense": 21409,
  "degree": 5743,
  "del": 10273,
  "dem": 12789,
  "democracy": 30814,
  "democratic": 38566,
  "den": 3898,
  "depend": 45950,
  "der": 3624,
  "des": 10067,
  "described": 30343,
  "det": 17701,
  "details": 45839,
  "determination": 32962,
  "develop": 34335,
  "developed": 28176,
  "di": 7506,
  "dial": 43735,
  "did": 24001,
  "different": 37251,
  "dig": 20098,
  "ding": 11303,
  "direct": 27555,
  "direction": 42184,
  "director": 19709,
  "dirty": 40087,
  "dis": 7779,
  "disc": 18909,
  "division": 29418,
  "do": 5016,
  "document": 43017,
  "documented": 37230,
  "does": 26692,
  "doesn": 34318,
  "dog": 16319,
  "doing": 30012,
  "dom": 12623,
  "dominated": 23169,
  "donald": 24139,
  "done": 27057,
  "dor": 32649,
  "down": 3955,
  "dozen": 28680,
  "dr": 10232,
  "draw": 24686,
  "driven": 9756,
  "dro": 39566,
  "du": 6588,
  "duc": 45882,
  "due": 17193,
  "during": 37460,
  "duty": 15593,
  "dy": 7180,
  "e": 242,
  "each": 37782,
  "ealing": 27638,
  "ealous": 30783,
  "ean": 12001,
  "ear": 4352,
  "earcher": 42723,
  "eared": 24845,
  "earing": 10852,
  "early": 23099,
  "earned": 23231,
  "ears": 12541,
  "eas": 29358,
  "eat": 21046,
  "eb": 3209,
  "ebook": 46762,
  "ec": 3204,
  "economic": 12063,
  "ect": 9041,
  "ected": 21722,
  "ed": 196,
  "edd": 13093,
  "eded": 8652,
  "eden": 23714,
  "eder": 11736,
  "edge": 14724,
  "edged": 35582,
  "edia": 24220,
  "edient": 47293,
  "eding": 13118,
  "edition": 31855,
  "eds": 12080,
  "educ": 36188,
  "educated": 26414,
  "ee": 1942,
  "eeks": 30384,
  "eem": 33386,
  "een": 14102,
  "eeper": 34832,
  "eering": 28829,
  "ees": 5421,
  "ef": 4550,
  "eff": 29678,
  "effect": 26715,
  "efined": 38716,
  "eful": 21954,
  "eg": 3733,
  "eight": 19491,
  "ek": 1951,
  "eker": 22193,
  "eking": 25558,
  "eks": 15390,
  "el": 523,
  "ela": 6658,
  "elcome": 42557,
  "ele": 6902,
  "elect": 6930,
  "elected": 15672,
  "election": 6414,
  "eless": 13802,
  "eline": 7012,
  "eling": 10244,
  "ell": 1641,
  "ellation": 33924,
  "elled": 16349,
  "eller": 15098,
  "elli": 13750,
  "elligence": 45852,
  "elly": 10917,
  "elope": 26889,
  "els": 2507,
  "elsen": 35573,
  "elt": 6607,
  "elve": 41120,
  "em": 991,
  "email": 10555,
  "eman": 5649,
  "emate": 23897,
  "emb": 20506,
  "emen": 15035,
  "ement": 6285,
  "emic": 14414,
  "emies": 26804,
  "emin": 20554,
  "eming": 33303,
  "emon": 34344,
  "emonic": 45656,
  "emp": 37655,
  "emphasis": 44743,
  "employ": 32198,
  "employed": 28326,
  "employment": 37011,
  "ems": 17752,
  "en": 225,
  "ena": 4242,
  "enable": 30743,
  "enberg": 13741,
  "enburg": 20533,
  "enc": 14210,
  "ence": 4086,
  "enced": 19867,
  "encer": 24077,
  "encers": 22691,
  "ences": 8457,
  "encies": 14768,
  "encing": 17725,
  "ency": 6761,
  "end": 1397,
  "endants": 35845,
  "ende": 14537,
  "ended": 6228,
  "ender": 7232,
  "enders": 13563,
  "endez": 22192,
  "ending": 4345,
  "endo": 12454,
  "endon": 27609,
  "endor": 25883,
  "ends": 8845,
  "ene": 2552,
  "ened": 4490,
  "ener": 5777,
  "eness": 14186,
  "enez": 16411,
  "eng": 3314,
  "enge": 20526,
  "enged": 34187,
  "enger": 24290,
  "engine": 23403,
  "ening": 4226,
  "enium": 44998,
  "enment": 48606,
  "enn": 4734,
  "enne": 18504,
  "ennes": 24800,
  "ennial": 13952,
  "ennis": 28828,
  "enough": 38597,
  "ens": 1290,
  "ense": 9401,
  "ensed": 25144,
  "enses": 21526,
  "ensible": 31452,
  "ensibly": 46598,
  "ensing": 21591,
  "ension": 17699,
  "ensitive": 43634,
  "ensive": 17355,
  "ensor": 35354,
  "enstein": 27574,
  "ensus": 28376,
  "ent": 1342,
  "ental": 13589,
  "ented": 9663,
  "enter": 11798,
  "enth": 28249,
  "ential": 12986,
  "entially": 16722,
  "entin": 40838,
  "enting": 28623,
  "ention": 19774,
  "entity": 46317,
  "ently": 7240,
  "entric": 44581,
  "entry": 12595,
  "ents": 4189,
  "enty": 24997,
  "env": 41124,
  "eny": 18199,
  "enz": 16481,
  "ep": 2462,
  "epend": 26769,
  "eping": 24320,
  "eq": 41456,
  "equ": 8198,
  "er": 254,
  "era": 3843,
  "erald": 26755,
  "erc": 11180,
  "ercise": 42118,
  "erd": 25902,
  "ere": 2816,
  "ered": 3215,
  "erence": 24935,
  "erences": 36806,
  "erent": 21120,
  "erential": 44125,
  "erers": 16885,
  "erest": 44488,
  "erg": 11249,
  "eri": 16367,
  "eric": 41675,
  "erie": 23834,
  "ering": 2961,
  "erm": 8362,
  "erman": 7043,
  "ermanent": 47958,
  "ern": 3281,
  "ernand": 41208,
  "ernandez": 43360,
  "ernaut": 34699,
  "ero": 5160,
  "erry": 11228,
  "ers": 268,
  "ership": 39953,
  "erson": 4277,
  "ert": 2399,
  "erto": 23880,
  "erv": 8649,
  "ervative": 41531,
  "ervatives": 37376,
  "erve": 14477,
  "erved": 13539,
  "erver": 39540,
  "erves": 22812,
  "ery": 4270,
  "es": 293,
  "esan": 28656,
  "esar": 19115,
  "esc": 10338,
  "escap": 41274,
  "esh": 4891,
  "esis": 25960,
  "ess": 3361,
  "esse": 19616,
  "essed": 18502,
  "essential": 23693,
  "essing": 29905,
  "ession": 21308,
  "essions": 27366,
  "essment": 38170,
  "esson": 24711,
  "essor": 33728,
  "est": 990,
  "esta": 17838,
  "establish": 30248,
  "established": 22234,
  "establishment": 30439,
  "estation": 24660,
  "este": 13967,
  "ested": 11718,
  "ester": 8939,
  "esters": 37354,
  "estine": 40164,
  "esting": 24472,
  "estone": 18873,
  "ests": 10092,
  "esty": 27668,
  "et": 594,
  "eter": 5906,
  "eth": 4774,
  "ethe": 36980,
  "etic": 15557,
  "etically": 36454,
  "eties": 25620,
  "etime": 16093,
  "eting": 16382,
  "etr": 17985,
  "ets": 2580,
  "ette": 3398,
  "etter": 24585,
  "ettes": 16683,
  "etti": 13238,
  "etting": 28618,
  "ety": 12637,
  "eu": 25171,
  "ev": 3623,
  "even": 12963,
  "ever": 6294,
  "everything": 31072,
  "evidence": 42655,
  "evil": 34727,
  "ew": 2753,
  "eworthy": 41506,
  "ews": 10269,
  "ex": 3463,
  "exc": 34645,
  "except": 26837,
  "execute": 48592,
  "exempt": 35531,
  "exist": 34632,
  "existence": 35445,
  "existent": 31453,
  "exit": 44054,
  "expl": 23242,
  "export": 38099,
  "express": 37752,
  "ext": 16435,
  "extreme": 34170,
  "extremely": 22754,
  "ey": 2981,
  "eye": 20668,
  "eyed": 17178,
  "ez": 5841,
  "f": 506,
  "fa": 12010,
  "face": 9021,
  "facebook": 17635,
  "faces": 40289,
  "fact": 24905,
  "fail": 37694,
  "fair": 13500,
  "fake": 18169,
  "fall": 7349,
  "false": 22303,
  "fam": 27505,
  "family": 12368,
  "far": 15476,
  "fare": 17825,
  "farm": 19779,
  "fast": 16963,
  "father": 14891,
  "fe": 7068,
  "fect": 17706,
  "fed": 21967,
  "feel": 35702,
  "feld": 12706,
  "fell": 17195,
  "ference": 23861,
  "fest": 13936,
  "fetched": 37606,
  "ff": 3145,
  "fiction": 25175,
  "field": 1399,
  "fight": 16695,
  "fighter": 32096,
  "figure": 23972,
  "fil": 18419,
  "filled": 13268,
  "fin": 13597,
  "final": 6156,
  "find": 26559,
  "finding": 33791,
  "first": 9502,
  "fit": 14307,
  "five": 9579,
  "fix": 23032,
  "fl": 4825,
  "flation": 18613,
  "fle": 40307,
  "focused": 12804,
  "fold": 12851,
  "folk": 35363,
  "follow": 28481,
  "foot": 2917,
  "for": 1990,
  "force": 9091,
  "forced": 25258,
  "forcer": 39727,
  "forces": 34532,
  "ford": 1891,
  "fore": 13364,
  "foreign": 35229,
  "form": 3899,
  "formation": 26941,
  "formed": 10312,
  "former": 22098,
  "fort": 12322,
  "fortable": 38093,
  "forth": 17030,
  "forward": 16135,
  "found": 19256,
  "founded": 17724,
  "founder": 7295,
  "four": 10231,
  "fox": 31587,
  "fr": 12997,
  "free": 3743,
  "freedom": 38608,
  "fried": 21209,
  "friendly": 6928,
  "friends": 33601,
  "from": 7761,
  "front": 9289,
  "fruit": 30929,
  "fs": 17884,
  "ft": 2543,
  "fters": 33464,
  "ful": 2650,
  "full": 16320,
  "fully": 6459,
  "fulness": 21843,
  "funded": 11856,
  "fy": 24382,
  "g": 571,
  "ga": 2538,
  "gall": 30322,
  "game": 2670,
  "gang": 21251,
  "gap": 29183,
  "gate": 7357,
  "gay": 22019,
  "gc": 42406,
  "ge": 1899,
  "geant": 47726,
  "ged": 4462,
  "geist": 39994,
  "gem": 23922,
  "gements": 41330,
  "gencies": 45829,
  "gener": 20557,
  "general": 15841,
  "generation": 11092,
  "gent": 13907,
  "geon": 20989,
  "ger": 2403,
  "gered": 40927,
  "gers": 7188,
  "gery": 21712,
  "ges": 5641,
  "gest": 10403,
  "get": 6460,
  "gets": 30900,
  "gg": 6149,
  "gging": 23941,
  "gh": 4147,
  "ghost": 41796,
  "giene": 41866,
  "ging": 3923,
  "gins": 38341,
  "gio": 27591,
  "girlfriend": 22943,
  "girls": 26778,
  "given": 31699,
  "gl": 7210,
  "glas": 39473,
  "gment": 10757,
  "go": 2977,
  "god": 31858,
  "goers": 15068,
  "going": 12891,
  "gold": 16472,
  "gomery": 41760,
  "good": 8396,
  "got": 22371,
  "gotten": 35095,
  "gov": 7354,
  "government": 11455,
  "gr": 6504,
  "grade": 8425,
  "graduate": 30434,
  "grand": 11377,
  "grass": 17282,
  "great": 12338,
  "greg": 40745,
  "gression": 42223,
  "gross": 28961,
  "group": 13839,
  "groups": 36378,
  "gs": 15453,
  "gu": 5521,
  "guard": 12984,
  "gun": 8215,
  "guy": 29528,
  "gy": 4740,
  "h": 298,
  "ha": 1999,
  "hab": 13899,
  "had": 12186,
  "hair": 34019,
  "half": 4809,
  "hall": 12023,
  "ham": 1908,
  "han": 4134,
  "hand": 4539,
  "handed": 9267,
  "handedly": 34946,
  "hani": 36424,
  "hard": 9635,
  "hari": 32390,
  "harm": 22417,
  "has": 7333,
  "hat": 8849,
  "hate": 33990,
  "haust": 41423,
  "have": 11990,
  "hawks": 22906,
  "he": 700,
  "head": 3628,
  "headed": 19279,
  "heads": 16560,
  "health": 14388,
  "heart": 12690,
  "hearted": 18948,
  "heartedly": 34089,
  "hed": 4183,
  "heid": 30071,
  "hel": 4393,
  "held": 11706,
  "hell": 20030,
  "hem": 9506,
  "hen": 2457,
  "hens": 27859,
  "her": 1843,
  "here": 10859,
  "herence": 40584,
  "herent": 33591,
  "herer": 38728,
  "hern": 16494,
  "hers": 10705,
  "hes": 5065,
  "hest": 20921,
  "hetic": 18667,
  "hetical": 43053,
  "hetically": 31667,
  "hi": 3592,
  "hid": 44122,
  "hidden": 37392,
  "high": 3530,
  "highest": 21810,
  "highly": 29003,
  "him": 24770,
  "hing": 8223,
  "hip": 4128,
  "hips": 7903,
  "his": 12724,
  "hist": 32001,
  "hitting": 25457,
  "hl": 11639,
  "hn": 10245,
  "hner": 34127,
  "ho": 5410,
  "hoe": 23712,
  "hof": 27327,
  "hog": 30755,
  "hol": 9649,
  "hold": 4208,
  "hole": 11616,
  "holy": 44127,
  "hom": 24792,
  "home": 8361,
  "hon": 16769,
  "hood": 8489,
  "hop": 9547,
  "hor": 13562,
  "host": 11438,
  "hot": 10120,
  "hour": 4509,
  "house": 3138,
  "how": 9178,
  "hr": 5039,
  "http": 8166,
  "https": 13082,
  "huge": 30214,
  "hum": 18257,
  "human": 19003,
  "hun": 18458,
  "husband": 21301,
  "hyp": 33027,
  "i": 118,
  "ia": 493,
  "iability": 34337,
  "iable": 13315,
  "iac": 9504,
  "iae": 42887,
  "iah": 7138,
  "iak": 20082,
  "ial": 2617,
  "ially": 11416,
  "ials": 9532,
  "ian": 811,
  "iana": 8878,
  "iance": 9862,
  "iani": 20909,
  "iano": 5472,
  "ians": 2071,
  "iar": 12202,
  "iaries": 41608,
  "ias": 5003,
  "iate": 10599,
  "iated": 15253,
  "iating": 16158,
  "iation": 16546,
  "ib": 1452,
  "iber": 9760,
  "ibi": 17310,
  "ible": 4748,
  "iblical": 47825,
  "ibly": 19031,
  "ibr": 11804,
  "ic": 636,
  "ica": 2426,
  "icably": 31249,
  "ical": 3569,
  "ically": 3435,
  "icals": 13764,
  "ican": 12657,
  "icate": 14263,
  "icated": 5554,
  "icates": 23020,
  "icating": 13659,
  "ication": 14086,
  "ice": 2463,
  "ices": 6355,
  "ich": 1725,
  "ician": 14932,
  "icians": 17197,
  "icidal": 42743,
  "icides": 31048,
  "icing": 16483,
  "icious": 16003,
  "icipated": 45500,
  "icist": 39302,
  "icit": 17022,
  "ick": 1758,
  "icked": 14851,
  "icken": 13552,
  "ickers": 23601,
  "ickey": 23988,
  "icking": 10176,
  "icles": 20846,
  "ico": 2684,
  "icon": 17505,
  "ics": 2857,
  "ict": 11726,
  "ictive": 37601,
  "icts": 29421,
  "icular": 21953,
  "icultural": 33174,
  "icum": 35753,
  "icus": 31913,
  "icy": 24363,
  "id": 808,
  "ida": 4347,
  "idal": 11934,
  "idate": 32890,
  "idd": 6502,
  "idding": 27346,
  "ide": 1949,
  "ided": 8598,
  "idel": 22088,
  "idelity": 19415,
  "idence": 17444,
  "ident": 8009,
  "identally": 24118,
  "idential": 32543,
  "identified": 23788,
  "idently": 39964,
  "ideos": 47586,
  "ider": 5326,
  "ides": 4376,
  "idespread": 38327,
  "idge": 15379,
  "idi": 12451,
  "iding": 8231,
  "idious": 43964,
  "idity": 35714,
  "ids": 7823,
  "ie": 324,
  "ied": 2550,
  "iel": 5255,
  "ield": 8363,
  "ien": 2495,
  "ience": 11465,
  "iency": 33625,
  "ienne": 21302,
  "iens": 27187,
  "ient": 4843,
  "ients": 20676,
  "ier": 906,
  "ieri": 14319,
  "ierra": 37511,
  "iers": 4733,
  "iership": 30571,
  "ies": 918,
  "iest": 7098,
  "iet": 5810,
  "ieth": 15036,
  "ieties": 29590,
  "ieu": 13627,
  "ieval": 47981,
  "ieve": 16637,
  "ieved": 36024,
  "ievers": 37290,
  "ieving": 31794,
  "iewicz": 31735,
  "if": 1594,
  "ifa": 15247,
  "ifer": 14087,
  "iff": 4822,
  "iffs": 13980,
  "ifiable": 21584,
  "ific": 8685,
  "ificant": 44358,
  "ificantly": 32333,
  "ificate": 43325,
  "ification": 5000,
  "ifice": 39748,
  "ified": 3786,
  "ifier": 24072,
  "ifies": 10687,
  "ifle": 30715,
  "ifting": 17274,
  "ifts": 22833,
  "ifty": 22129,
  "iful": 16170,
  "ifully": 34717,
  "ify": 4591,
  "ifying": 4945,
  "ig": 1023,
  "iga": 11742,
  "igan": 6703,
  "igate": 24343,
  "igated": 21750,
  "igating": 31721,
  "igel": 36547,
  "igenous": 39695,
  "igent": 28207,
  "iggins": 36215,
  "ight": 5971,
  "ighter": 24327,
  "ighters": 38361,
  "ighty": 25529,
  "igious": 36872,
  "igm": 35045,
  "ign": 4932,
  "ignant": 35090,
  "igned": 9044,
  "igning": 35780,
  "ignment": 15645,
  "ignore": 47072,
  "igor": 24929,
  "igr": 23704,
  "igrant": 20593,
  "igrants": 24280,
  "igraph": 42073,
  "igrate": 38476,
  "igrated": 28844,
  "igration": 33836,
  "igs": 15409,
  "ih": 4001,
  "ihad": 19284,
  "ihadi": 37226,
  "ii": 4132,
  "ij": 2161,
  "ijah": 44303,
  "ijing": 40049,
  "ijk": 18474,
  "ijuana": 25491,
  "ik": 967,
  "ikan": 21880,
  "iken": 22966,
  "iker": 17625,
  "ikes": 13349,
  "iki": 8907,
  "iking": 26897,
  "iko": 9691,
  "il": 718,
  "ila": 4882,
  "ilated": 35521,
  "ild": 9683,
  "ile": 1848,
  "ileaks": 47471,
  "iled": 6691,
  "ilege": 44210,
  "iler": 10329,
  "iles": 4755,
  "ili": 4715,
  "ilia": 10990,
  "ilian": 35373,
  "iliar": 40484,
  "iliary": 34114,
  "iliation": 26045,
  "ilic": 22586,
  "ilit": 12427,
  "ilitating": 41160,
  "ilitation": 20825,
  "ilities": 42651,
  "ility": 13005,
  "ill": 1873,
  "illa": 4699,
  "illas": 19485,
  "ille": 4061,
  "illed": 12146,
  "illegal": 32678,
  "illing": 7491,
  "illion": 10077,
  "illo": 6491,
  "ills": 5622,
  "illusion": 47462,
  "illy": 10758,
  "ils": 5290,
  "ilst": 32482,
  "ilt": 10325,
  "ilton": 26533,
  "iltration": 43605,
  "ilty": 33576,
  "ily": 5846,
  "im": 757,
  "ima": 4261,
  "images": 39472,
  "imal": 16980,
  "imate": 16633,
  "imated": 24985,
  "imating": 35098,
  "imb": 16231,
  "ime": 4235,
  "iment": 8913,
  "imer": 15677,
  "imes": 9452,
  "imi": 7517,
  "iminary": 27005,
  "immigrant": 28089,
  "immigration": 31793,
  "imo": 11332,
  "imony": 36828,
  "imp": 11850,
  "impl": 38731,
  "imposed": 24039,
  "imus": 40439,
  "in": 179,
  "ina": 1243,
  "inal": 6204,
  "inally": 30672,
  "inals": 17552,
  "inary": 15548,
  "inas": 11275,
  "inate": 13014,
  "inated": 9339,
  "inately": 39670,
  "inating": 15647,
  "ination": 8111,
  "inations": 17808,
  "inator": 19936,
  "inatory": 42350,
  "inc": 3976,
  "incinnati": 40783,
  "including": 8529,
  "income": 7214,
  "incre": 33008,
  "increasing": 32313,
  "ind": 2028,
  "individual": 42333,
  "industrial": 27739,
  "ine": 833,
  "ined": 6158,
  "inem": 10748,
  "inently": 43287,
  "iner": 5101,
  "ines": 3141,
  "iness": 6601,
  "inf": 9433,
  "information": 31480,
  "informed": 29068,
  "ing": 154,
  "inged": 25963,
  "inger": 6082,
  "inging": 19384,
  "ingle": 18768,
  "ingly": 7790,
  "ings": 1033,
  "ington": 6598,
  "ingu": 35308,
  "inguished": 31687,
  "ini": 2531,
  "inia": 38090,
  "ining": 6074,
  "initely": 27941,
  "inity": 16838,
  "ink": 4291,
  "inkle": 15673,
  "inks": 12935,
  "inn": 5246,
  "innie": 31854,
  "inning": 15853,
  "ino": 1696,
  "ins": 1344,
  "insky": 16444,
  "inson": 9554,
  "inst": 16063,
  "instein": 40335,
  "int": 2544,
  "integ": 24894,
  "intel": 43066,
  "intelligence": 29812,
  "intent": 46188,
  "intention": 34095,
  "inter": 8007,
  "interest": 15979,
  "internal": 37559,
  "inters": 38993,
  "into": 12473,
  "inv": 24701,
  "involved": 30013,
  "iny": 11287,
  "io": 1020,
  "iod": 22694,
  "iol": 14215,
  "iological": 35948,
  "ion": 1499,
  "ioned": 33751,
  "ions": 2485,
  "ior": 7375,
  "iors": 10327,
  "ios": 4544,
  "iots": 42392,
  "ious": 6514,
  "iously": 9997,
  "ip": 1588,
  "ipal": 32483,
  "ipe": 11387,
  "iph": 28778,
  "ipment": 39737,
  "ipp": 5600,
  "ipped": 8246,
  "ips": 7418,
  "ipt": 10455,
  "iqu": 9071,
  "ique": 5150,
  "ir": 853,
  "ira": 3578,
  "irc": 21163,
  "ird": 8602,
  "ire": 1885,
  "irect": 38806,
  "irection": 43606,
  "ired": 7651,
  "iren": 23832,
  "ires": 7948,
  "irez": 45082,
  "iring": 9798,
  "irk": 10126,
  "irm": 9856,
  "irmation": 39490,
  "irmed": 9125,
  "irming": 20277,
  "iron": 11680,
  "irrel": 48226,
  "irst": 17698,
  "irt": 9211,
  "irted": 31137,
  "irth": 24208,
  "irting": 27181,
  "irty": 32430,
  "is": 354,
  "isan": 22471,
  "isation": 3258,
  "isc": 4473,
  "iscal": 26104,
  "isch": 13239,
  "isco": 15069,
  "iscopal": 47785,
  "iscovery": 37121,
  "ise": 1496,
  "ised": 1720,
  "iser": 5999,
  "ises": 5504,
  "ish": 1173,
  "isha": 9268,
  "ished": 6555,
  "isher": 13761,
  "ishes": 10776,
  "ishing": 6234,
  "ishment": 16812,
  "ishop": 44517,
  "ishops": 32084,
  "ising": 3009,
  "ision": 10699,
  "isions": 12545,
  "isive": 31287,
  "isk": 6812,
  "isl": 13714,
  "ism": 1809,
  "isms": 28599,
  "iso": 16845,
  "ison": 4060,
  "isons": 24806,
  "iss": 3006,
  "issa": 12109,
  "isson": 19140,
  "issy": 20157,
  "ist": 661,
  "ista": 6377,
  "istance": 32556,
  "istant": 33388,
  "iste": 18495,
  "isted": 15346,
  "istence": 41177,
  "istent": 21464,
  "ister": 4742,
  "istic": 5580,
  "istically": 18281,
  "istle": 22855,
  "istrate": 18104,
  "istrates": 15596,
  "ists": 1952,
  "it": 405,
  "ita": 3119,
  "itability": 28567,
  "itable": 11010,
  "itably": 36244,
  "ital": 8632,
  "itals": 19196,
  "itant": 41448,
  "itar": 14369,
  "itarian": 20444,
  "itas": 15369,
  "itate": 12624,
  "itated": 15114,
  "itates": 38882,
  "itation": 12257,
  "itations": 29148,
  "itative": 26709,
  "itatively": 43127,
  "itbart": 43701,
  "itch": 3239,
  "itched": 17670,
  "itching": 22853,
  "ite": 1459,
  "itect": 37471,
  "ited": 4560,
  "itely": 41776,
  "itement": 33144,
  "iter": 8660,
  "ites": 5110,
  "ith": 3432,
  "ithe": 21637,
  "ither": 15027,
  "ithering": 37414,
  "iti": 4933,
  "itia": 37310,
  "itic": 31128,
  "ities": 2192,
  "itimate": 39981,
  "iting": 2838,
  "ition": 7469,
  "itions": 8237,
  "itious": 33494,
  "itis": 10100,
  "itism": 30619,
  "itive": 15589,
  "itives": 35143,
  "itled": 22764,
  "itness": 33909,
  "itol": 20884,
  "itor": 7852,
  "itors": 9314,
  "itory": 38414,
  "its": 2629,
  "itt": 2582,
  "ittance": 35926,
  "itted": 16430,
  "ittee": 45798,
  "ittees": 45625,
  "itter": 7915,
  "itting": 9451,
  "itual": 47388,
  "itude": 11964,
  "itudes": 25917,
  "itus": 20818,
  "itute": 26261,
  "itutes": 39626,
  "itution": 26013,
  "itutional": 12279,
  "ity": 1571,
  "itz": 4494,
  "itzer": 19903,
  "ium": 4031,
  "ius": 6125,
  "iuses": 30152,
  "iv": 1879,
  "iva": 7222,
  "ival": 11221,
  "ivan": 18356,
  "ivated": 23907,
  "ive": 2088,
  "ively": 6608,
  "iveness": 12367,
  "iver": 8538,
  "ivered": 35158,
  "ivers": 10744,
  "iversity": 31104,
  "ives": 3699,
  "ivic": 41096,
  "ivil": 41868,
  "iving": 9404,
  "ivism": 33607,
  "ivist": 35012,
  "ivity": 9866,
  "iw": 10432,
  "ix": 3181,
  "ixed": 24194,
  "ixon": 28427,
  "ixty": 29262,
  "iy": 4911,
  "iya": 10252,
  "iyah": 33210,
  "iz": 1210,
  "ization": 1938,
  "izations": 18391,
  "ize": 2072,
  "ized": 1538,
  "izen": 26821,
  "izer": 6315,
  "izers": 11574,
  "izes": 7396,
  "izing": 2787,
  "izzle": 37865,
  "j": 267,
  "ja": 1910,
  "jamin": 39730,
  "jandro": 25787,
  "jar": 11978,
  "ject": 21517,
  "jected": 31899,
  "jen": 7623,
  "jo": 3548,
  "join": 26960,
  "journal": 15545,
  "joy": 20768,
  "jpg": 10474,
  "jud": 12864,
  "jury": 38160,
  "just": 8987,
  "k": 330,
  "ka": 2348,
  "kar": 8722,
  "ke": 1071,
  "ked": 10916,
  "keeper": 12873,
  "kel": 5576,
  "kept": 38584,
  "ker": 5029,
  "kered": 20093,
  "key": 5282,
  "keys": 18161,
  "kg": 9043,
  "kh": 8467,
  "ki": 3144,
  "kick": 13643,
  "kids": 28371,
  "kil": 15870,
  "kill": 16424,
  "kin": 4245,
  "kind": 11584,
  "king": 7037,
  "kj": 36085,
  "kk": 27762,
  "kl": 16291,
  "km": 7203,
  "kn": 15204,
  "knit": 29008,
  "known": 6421,
  "ko": 3852,
  "kok": 42915,
  "kos": 27179,
  "ks": 2258,
  "kson": 27980,
  "kw": 33294,
  "l": 462,
  "la": 2560,
  "lab": 31479,
  "laden": 20724,
  "lah": 30166,
  "lan": 6847,
  "land": 1245,
  "lander": 14862,
  "lands": 8391,
  "language": 19527,
  "lar": 10898,
  "large": 11802,
  "last": 13751,
  "late": 19593,
  "lated": 32914,
  "laun": 30866,
  "law": 4656,
  "lay": 8433,
  "lc": 45071,
  "ld": 4779,
  "lder": 13034,
  "le": 459,
  "leader": 19086,
  "leaders": 23240,
  "league": 10925,
  "leaning": 18813,
  "lect": 17601,
  "lection": 20576,
  "led": 1329,
  "ledged": 45666,
  "lee": 7445,
  "left": 6960,
  "leg": 4308,
  "legal": 27310,
  "lege": 37777,
  "legraph": 39156,
  "lem": 10770,
  "lement": 13767,
  "lements": 24041,
  "ler": 1371,
  "lers": 7906,
  "les": 1634,
  "lesiastical": 46377,
  "less": 1672,
  "lessly": 12445,
  "lessness": 16337,
  "let": 2716,
  "leted": 36140,
  "lets": 10219,
  "lev": 9525,
  "level": 4483,
  "ley": 607,
  "lez": 23250,
  "lf": 13491,
  "li": 3572,
  "lia": 14190,
  "liam": 37003,
  "liament": 37078,
  "liberal": 37483,
  "lic": 5895,
  "lict": 29525,
  "liction": 38068,
  "licts": 43307,
  "lie": 11527,
  "lier": 14730,
  "lies": 15124,
  "life": 5367,
  "light": 6991,
  "lighting": 30181,
  "lights": 20888,
  "like": 3341,
  "lim": 10839,
  "limit": 42425,
  "limited": 27829,
  "lin": 2614,
  "line": 1902,
  "linear": 43871,
  "liners": 18444,
  "lines": 11723,
  "liness": 24060,
  "ling": 1527,
  "lining": 16526,
  "linked": 16166,
  "lio": 29067,
  "lish": 21457,
  "list": 8458,
  "little": 27635,
  "liv": 31332,
  "live": 16244,
  "ll": 890,
  "lled": 9970,
  "ller": 12853,
  "llers": 20855,
  "lli": 10054,
  "lling": 7633,
  "llor": 31836,
  "lly": 13861,
  "lo": 4082,
  "load": 16204,
  "loaded": 24919,
  "lock": 8292,
  "lon": 10849,
  "long": 3479,
  "look": 13724,
  "looking": 3690,
  "los": 22324,
  "loss": 13242,
  "love": 17693,
  "low": 5481,
  "ls": 6634,
  "lt": 7984,
  "lu": 6487,
  "lude": 34646,
  "lves": 30460,
  "ly": 352,
  "lyn": 7436,
  "lynn": 26153,
  "m": 119,
  "ma": 1916,
  "machine": 37556,
  "mad": 17497,
  "made": 7078,
  "mag": 16266,
  "mail": 6380,
  "mails": 34554,
  "make": 19746,
  "maker": 5406,
  "makers": 6040,
  "making": 5349,
  "mal": 10417,
  "male": 31336,
  "malink": 38936,
  "man": 397,
  "management": 14668,
  "manent": 39713,
  "mann": 4621,
  "manship": 17187,
  "mar": 3916,
  "marg": 43037,
  "mark": 6920,
  "marriage": 42855,
  "mas": 13738,
  "mass": 27289,
  "match": 10565,
  "matic": 29753,
  "max": 29459,
  "may": 12488,
  "mb": 6648,
  "mber": 34707,
  "mc": 29297,
  "me": 1794,
  "meaning": 24872,
  "meat": 38542,
  "med": 4567,
  "media": 5535,
  "mediate": 30771,
  "mediately": 36382,
  "mem": 25683,
  "member": 8648,
  "members": 23742,
  "men": 2262,
  "ment": 1757,
  "mentioned": 39346,
  "ments": 2963,
  "mer": 2089,
  "merga": 41386,
  "mess": 38177,
  "message": 44773,
  "met": 5646,
  "method": 45416,
  "mg": 22984,
  "miah": 47755,
  "mic": 15796,
  "mid": 16079,
  "mie": 23738,
  "mile": 7800,
  "mill": 15466,
  "million": 4416,
  "min": 4691,
  "mination": 42174,
  "minded": 11261,
  "mine": 13523,
  "ming": 7059,
  "minute": 4530,
  "misc": 45321,
  "missing": 41947,
  "mission": 12478,
  "missive": 41687,
  "mist": 30500,
  "mit": 8974,
  "mite": 42409,
  "mits": 21188,
  "mitt": 22141,
  "mm": 5471,
  "mo": 4992,
  "mod": 14377,
  "moderate": 19397,
  "modern": 28810,
  "mon": 5806,
  "mond": 8876,
  "mong": 27669,
  "month": 2151,
  "moon": 16956,
  "mor": 15188,
  "moral": 32661,
  "more": 4321,
  "morning": 24863,
  "mot": 25331,
  "mother": 19456,
  "mount": 17336,
  "move": 30191,
  "moving": 19838,
  "mp": 6195,
  "mph": 17055,
  "mr": 35685,
  "ms": 4339,
  "much": 28431,
  "mult": 42527,
  "multiple": 34654,
  "mun": 20614,
  "mus": 13792,
  "must": 26895,
  "my": 4783,
  "n": 282,
  "na": 2133,
  "nah": 29579,
  "nai": 39089,
  "nam": 8697,
  "named": 26442,
  "nan": 10197,
  "nant": 26665,
  "nation": 17409,
  "national": 11535,
  "natural": 25270,
  "nb": 40460,
  "nd": 1187,
  "ndum": 39104,
  "ne": 858,
  "near": 34664,
  "ned": 7456,
  "need": 30484,
  "needed": 14546,
  "neg": 23156,
  "nen": 19596,
  "ner": 1396,
  "nered": 30815,
  "ners": 7130,
  "nes": 4977,
  "ness": 1825,
  "net": 4135,
  "neum": 45042,
  "never": 20042,
  "new": 4651,
  "news": 2926,
  "nexus": 48559,
  "ney": 2596,
  "ng": 2590,
  "nic": 12979,
  "nice": 34033,
  "nick": 16346,
  "nie": 7468,
  "night": 8498,
  "nih": 24469,
  "nik": 8256,
  "ning": 3509,
  "nl": 35760,
  "no": 2362,
  "nom": 13681,
  "non": 13424,
  "none": 39763,
  "normal": 21113,
  "nostic": 40997,
  "not": 3654,
  "notes": 29369,
  "nothing": 23702,
  "now": 8310,
  "nown": 42114,
  "nsics": 34474,
  "nt": 3999,
  "nton": 30046,
  "nuclear": 31242,
  "ny": 2855,
  "o": 139,
  "oa": 8271,
  "ob": 2413,
  "obby": 27825,
  "obe": 14004,
  "ober": 24761,
  "obin": 39092,
  "object": 40412,
  "oc": 1975,
  "ocal": 21103,
  "ocalyptic": 41855,
  "ocating": 18106,
  "ocation": 15644,
  "ocaust": 43328,
  "occ": 23462,
  "ocent": 41361,
  "ocese": 12074,
  "och": 4306,
  "oci": 17641,
  "ocked": 9596,
  "ocking": 12088,
  "ocks": 6368,
  "ocon": 33955,
  "ocr": 32508,
  "ocracy": 30129,
  "ocrat": 22730,
  "ocratic": 23337,
  "ocrats": 33335,
  "ocumented": 45458,
  "od": 1630,
  "odd": 13533,
  "oddy": 28375,
  "ode": 4636,
  "odge": 20305,
  "oding": 19519,
  "ods": 20529,
  "odus": 45933,
  "ody": 9956,
  "oe": 3540,
  "oen": 18057,
  "oes": 8013,
  "of": 1116,
  "off": 1529,
  "official": 24132,
  "offs": 10816,
  "og": 2154,
  "oga": 10447,
  "ogan": 17302,
  "ogg": 6038,
  "ogical": 32481,
  "ogl": 25326,
  "ographical": 25032,
  "ography": 10486,
  "ogue": 10149,
  "oh": 2678,
  "ohl": 24466,
  "oi": 12467,
  "oid": 12572,
  "oids": 22926,
  "oint": 15494,
  "ointed": 26427,
  "oit": 21058,
  "oj": 4203,
  "ok": 1638,
  "oke": 5361,
  "oked": 17477,
  "oken": 22036,
  "okes": 6568,
  "oking": 14805,
  "oko": 11136,
  "ol": 1168,
  "ola": 3019,
  "olan": 13887,
  "olar": 19231,
  "olas": 17084,
  "olate": 41511,
  "old": 279,
  "olded": 40256,
  "olds": 10736,
  "ole": 4104,
  "olen": 22370,
  "olerance": 29255,
  "oles": 7003,
  "olester": 44305,
  "oli": 6483,
  "olic": 12589,
  "olics": 45523,
  "olid": 30912,
  "olin": 21716,
  "oling": 31992,
  "olis": 25628,
  "olition": 40809,
  "oll": 3937,
  "ollah": 27266,
  "oller": 30428,
  "olo": 5675,
  "olog": 8982,
  "ological": 9779,
  "ologically": 30570,
  "ologist": 6393,
  "ologists": 10974,
  "ology": 4383,
  "olt": 11499,
  "olute": 27184,
  "olutely": 40716,
  "olution": 23794,
  "olved": 19084,
  "olving": 21241,
  "om": 1075,
  "omach": 44637,
  "oman": 16187,
  "omatic": 29177,
  "omb": 5223,
  "ome": 4399,
  "omed": 12781,
  "omes": 9898,
  "omet": 11174,
  "ometer": 12687,
  "ometime": 40034,
  "omew": 25741,
  "omin": 18121,
  "ominated": 23896,
  "omination": 43539,
  "oming": 9410,
  "omo": 13318,
  "omon": 28344,
  "ompl": 40712,
  "oms": 6806,
  "omy": 13604,
  "on": 261,
  "ona": 4488,
  "once": 25252,
  "ond": 2832,
  "onde": 11950,
  "onder": 17037,
  "onding": 40279,
  "ondo": 11168,
  "onduct": 26593,
  "one": 1264,
  "oned": 11469,
  "onement": 30252,
  "ones": 6909,
  "onest": 28180,
  "onew": 32991,
  "oney": 6071,
  "ong": 1657,
  "onge": 28879,
  "ongo": 16660,
  "ongyang": 46125,
  "oni": 5270,
  "onial": 36072,
  "onic": 10003,
  "onies": 17130,
  "oning": 11626,
  "only": 8338,
  "onna": 19864,
  "onomy": 38217,
  "ons": 1790,
  "onsequ": 37347,
  "ont": 2533,
  "ony": 6119,
  "oo": 3036,
  "ook": 6576,
  "ooks": 28937,
  "ool": 8110,
  "ools": 22890,
  "oom": 11691,
  "oon": 3863,
  "oops": 37843,
  "oot": 9210,
  "ooting": 23894,
  "op": 1517,
  "opa": 24104,
  "opal": 25396,
  "opath": 43671,
  "ope": 9877,
  "oped": 15911,
  "open": 12592,
  "opened": 29404,
  "opening": 12211,
  "oper": 8428,
  "opez": 41816,
  "oph": 6673,
  "ophile": 35870,
  "ophob": 46001,
  "ophobia": 24938,
  "ophobic": 31209,
  "ople": 28948,
  "opoulos": 15872,
  "opp": 10223,
  "oppers": 8984,
  "ops": 5090,
  "opsy": 33716,
  "opt": 19693,
  "opter": 32309,
  "opus": 33259,
  "or": 368,
  "ora": 4330,
  "orable": 18911,
  "oral": 15010,
  "orange": 41964,
  "oration": 18620,
  "orbit": 31183,
  "orce": 34260,
  "ord": 3109,
  "order": 10337,
  "ordered": 24932,
  "ordering": 43976,
  "ords": 15047,
  "ore": 1688,
  "orean": 24452,
  "ored": 3995,
  "ores": 4765,
  "org": 1957,
  "organ": 17247,
  "ori": 6249,
  "orial": 17707,
  "orian": 23943,
  "orical": 30340,
  "orient": 29458,
  "oriented": 13283,
  "ories": 9023,
  "original": 34545,
  "oring": 5137,
  "orious": 31221,
  "oris": 26787,
  "ork": 9657,
  "orm": 8693,
  "orn": 4244,
  "orne": 12266,
  "orned": 39606,
  "orney": 42276,
  "orneys": 22979,
  "orno": 27211,
  "oro": 11104,
  "oros": 37904,
  "orough": 33123,
  "orously": 38564,
  "orph": 31724,
  "orrect": 42892,
  "orry": 17649,
  "ors": 994,
  "orses": 34225,
  "orship": 11887,
  "orst": 36767,
  "ort": 2723,
  "orted": 25654,
  "orter": 10679,
  "orters": 10236,
  "ortion": 33938,
  "orts": 8807,
  "orum": 32375,
  "ory": 4405,
  "os": 366,
  "osa": 5166,
  "ose": 3876,
  "osed": 7878,
  "oser": 19780,
  "osexual": 41746,
  "osh": 5212,
  "osi": 15879,
  "osing": 10174,
  "osite": 42934,
  "ository": 39415,
  "oso": 18865,
  "osp": 16497,
  "osphere": 29498,
  "ospital": 44206,
  "oss": 5434,
  "ossible": 31497,
  "ossibly": 39890,
  "ossier": 38746,
  "ossip": 35748,
  "ost": 2603,
  "osta": 13334,
  "oster": 13991,
  "ostics": 21611,
  "osures": 28838,
  "ot": 1242,
  "ota": 6804,
  "otal": 35067,
  "otally": 27082,
  "ote": 6457,
  "oted": 11367,
  "otent": 41098,
  "oters": 37921,
  "oth": 6157,
  "other": 7443,
  "oti": 10939,
  "otiation": 33524,
  "otic": 13510,
  "oting": 12653,
  "otive": 9719,
  "oto": 7087,
  "ots": 5992,
  "ott": 5229,
  "otte": 17034,
  "ou": 1438,
  "ouble": 43591,
  "oubtedly": 41732,
  "ouch": 12746,
  "oud": 6998,
  "oug": 13098,
  "ough": 4894,
  "ought": 12807,
  "ounce": 15810,
  "ound": 9834,
  "ounded": 9968,
  "ounding": 10773,
  "ounds": 12363,
  "oup": 18615,
  "ouple": 41112,
  "our": 2126,
  "ourage": 22815,
  "ourced": 22241,
  "ources": 39412,
  "oured": 8855,
  "ouring": 15794,
  "ourke": 18338,
  "ourney": 37786,
  "ours": 5634,
  "ous": 1827,
  "ouse": 11556,
  "ously": 9412,
  "out": 995,
  "outh": 15617,
  "outs": 4518,
  "ov": 1417,
  "ova": 3900,
  "ove": 7067,
  "oved": 12677,
  "over": 2137,
  "overed": 16223,
  "ovich": 10609,
  "oving": 13871,
  "ow": 1722,
  "oward": 36750,
  "owed": 9725,
  "owell": 21366,
  "ower": 8285,
  "owers": 9945,
  "owicz": 30268,
  "owing": 6932,
  "owitz": 19238,
  "own": 3355,
  "owned": 4447,
  "owner": 14527,
  "ows": 2176,
  "ox": 4325,
  "oy": 2160,
  "oya": 13578,
  "oyal": 24533,
  "oz": 3979,
  "ozy": 29005,
  "p": 642,
  "pa": 6709,
  "pack": 12486,
  "page": 8596,
  "pages": 40347,
  "paid": 13765,
  "pain": 32981,
  "panel": 40465,
  "paper": 33331,
  "par": 5489,
  "parable": 30788,
  "paragraph": 46845,
  "park": 15129,
  "part": 7755,
  "partisan": 29247,
  "party": 6493,
  "pass": 10212,
  "past": 33456,
  "path": 22609,
  "patrick": 28779,
  "pay": 14066,
  "pe": 2379,
  "peace": 30861,
  "peak": 37271,
  "pect": 13771,
  "ped": 9700,
  "pee": 12084,
  "pelled": 30514,
  "pelling": 25688,
  "pen": 9675,
  "people": 11970,
  "per": 1741,
  "perate": 29739,
  "pers": 16414,
  "person": 5970,
  "personal": 26892,
  "ph": 3792,
  "phasis": 44453,
  "phone": 17283,
  "phones": 15797,
  "photo": 17827,
  "physical": 41359,
  "pic": 19017,
  "pick": 32041,
  "piece": 10449,
  "pieces": 26235,
  "ping": 15341,
  "piracy": 40780,
  "piration": 41678,
  "pired": 25002,
  "pit": 17291,
  "pl": 2911,
  "placed": 12459,
  "plan": 11181,
  "playing": 20180,
  "pled": 18331,
  "plement": 40224,
  "plementation": 45661,
  "ples": 12349,
  "pless": 16979,
  "pleting": 30350,
  "plom": 41009,
  "plus": 7269,
  "ply": 26308,
  "pm": 1685,
  "pn": 35857,
  "po": 5873,
  "point": 2300,
  "pole": 33254,
  "police": 24848,
  "polit": 25214,
  "political": 17522,
  "pool": 10416,
  "poor": 29557,
  "pop": 15076,
  "population": 41340,
  "por": 12150,
  "port": 3427,
  "portation": 41067,
  "ported": 31340,
  "porting": 18311,
  "ports": 8303,
  "pos": 11474,
  "posal": 30999,
  "pose": 21519,
  "poses": 38395,
  "posing": 29105,
  "position": 14413,
  "post": 7049,
  "pot": 8024,
  "pots": 26708,
  "pound": 8833,
  "power": 11017,
  "powerful": 35866,
  "powers": 24367,
  "pp": 3807,
  "pped": 5686,
  "pper": 5961,
  "ppers": 14403,
  "pping": 5435,
  "pr": 4862,
  "practice": 32524,
  "pre": 5234,
  "pred": 37466,
  "prep": 40539,
  "president": 10443,
  "pressure": 28250,
  "pri": 13718,
  "print": 17265,
  "printed": 36818,
  "prints": 31553,
  "prises": 37796,
  "pro": 4892,
  "process": 31931,
  "proclaimed": 29956,
  "productive": 32499,
  "prof": 22376,
  "profile": 7221,
  "profit": 7699,
  "progress": 38265,
  "prom": 12501,
  "protect": 35174,
  "protected": 37659,
  "prov": 13138,
  "proven": 32012,
  "ps": 3275,
  "psy": 23566,
  "pt": 3320,
  "ptic": 24617,
  "ption": 24802,
  "pub": 22478,
  "public": 15110,
  "pur": 7748,
  "pure": 38627,
  "put": 9179,
  "q": 1343,
  "qi": 26017,
  "qu": 2253,
  "qual": 27702,
  "qualified": 26505,
  "que": 3407,
  "quest": 23627,
  "quick": 35356,
  "quiet": 35750,
  "quire": 17446,
  "r": 338,
  "ra": 763,
  "rac": 13249,
  "race": 12326,
  "ract": 15664,
  "racted": 33598,
  "raction": 22870,
  "rad": 7822,
  "raf": 13883,
  "raft": 13001,
  "rage": 17952,
  "rah": 9772,
  "raham": 27092,
  "raid": 25667,
  "rail": 23382,
  "rain": 9946,
  "rained": 26492,
  "raising": 21973,
  "rak": 9418,
  "ram": 4040,
  "rama": 24016,
  "rams": 27809,
  "ran": 3917,
  "rand": 22103,
  "range": 9435,
  "ranging": 20091,
  "rank": 40081,
  "ranking": 19217,
  "rant": 6618,
  "rants": 25474,
  "rap": 8645,
  "rary": 35073,
  "ras": 5079,
  "rast": 16136,
  "rat": 6528,
  "rate": 7954,
  "rated": 8358,
  "rates": 18711,
  "rather": 37615,
  "rating": 21172,
  "ration": 8475,
  "raud": 20202,
  "rav": 6472,
  "ravis": 39211,
  "ravity": 42701,
  "raw": 9056,
  "rax": 35054,
  "ray": 5022,
  "rays": 24192,
  "raz": 9919,
  "rc": 22393,
  "rd": 2586,
  "re": 241,
  "rea": 9891,
  "read": 12745,
  "reading": 30164,
  "ready": 16402,
  "real": 8726,
  "realDonaldTrump": 14345,
  "really": 20982,
  "reason": 41995,
  "reat": 12353,
  "reau": 23152,
  "recent": 38696,
  "recorded": 36902,
  "red": 2050,
  "redible": 29921,
  "redibly": 32340,
  "redict": 39733,
  "redited": 39618,
  "redo": 33293,
  "ree": 5314,
  "reed": 29846,
  "reen": 22500,
  "rees": 13448,
  "ref": 13043,
  "reflect": 39878,
  "reg": 4950,
  "regation": 32896,
  "registered": 24580,
  "rehend": 48051,
  "rel": 5982,
  "related": 3368,
  "release": 27561,
  "relevant": 41017,
  "religious": 32300,
  "rely": 39041,
  "rem": 5593,
  "reme": 21612,
  "remlin": 42062,
  "ren": 2558,
  "rence": 21557,
  "rench": 18723,
  "rend": 10082,
  "rent": 9854,
  "rep": 12597,
  "repe": 36456,
  "repl": 41850,
  "report": 7415,
  "reported": 28422,
  "reporting": 37285,
  "requently": 42615,
  "request": 16604,
  "res": 1535,
  "resa": 19716,
  "resents": 40826,
  "resh": 23053,
  "respective": 45160,
  "ress": 5224,
  "ressed": 10887,
  "resses": 13937,
  "ressing": 9828,
  "ression": 21791,
  "resso": 27989,
  "rest": 7110,
  "ret": 4903,
  "retched": 47904,
  "retion": 32695,
  "rett": 18235,
  "return": 30921,
  "rev": 23559,
  "review": 22459,
  "revolution": 38111,
  "rew": 10461,
  "rey": 5460,
  "rh": 20378,
  "ri": 1069,
  "ria": 6374,
  "rial": 13700,
  "rian": 10713,
  "rib": 8643,
  "ribed": 33273,
  "ribes": 36820,
  "ribut": 24008,
  "ributed": 18926,
  "ribution": 35719,
  "ric": 4063,
  "rica": 14962,
  "rice": 15474,
  "rich": 5691,
  "rict": 12127,
  "rid": 10505,
  "ridden": 29112,
  "ridge": 8614,
  "rie": 3636,
  "ried": 10382,
  "rief": 24062,
  "riel": 21194,
  "rieve": 20080,
  "rieved": 29979,
  "rig": 7638,
  "right": 4070,
  "ril": 20447,
  "rim": 6103,
  "rin": 5719,
  "rine": 24339,
  "ring": 4506,
  "rington": 12344,
  "rint": 39907,
  "rip": 10706,
  "ris": 4663,
  "risis": 28461,
  "rist": 11516,
  "rists": 44571,
  "rit": 3961,
  "rites": 39651,
  "rium": 27753,
  "riv": 16936,
  "rival": 27978,
  "rive": 25824,
  "rived": 36040,
  "ro": 1001,
  "rob": 17569,
  "roc": 18375,
  "rock": 9144,
  "rog": 10191,
  "roll": 9671,
  "rolling": 20640,
  "rom": 5638,
  "roman": 32562,
  "romeda": 49025,
  "romising": 37235,
  "romptu": 30467,
  "ron": 2839,
  "rones": 30133,
  "ronic": 18731,
  "ront": 23406,
  "room": 4294,
  "roots": 35139,
  "roph": 21130,
  "ropri": 26049,
  "ror": 21929,
  "ros": 3985,
  "ross": 14500,
  "rote": 26125,
  "rou": 8508,
  "rought": 27400,
  "round": 3431,
  "roups": 46898,
  "row": 4610,
  "rowing": 23512,
  "rown": 19649,
  "roy": 6506,
  "rs": 4926,
  "rt": 9713,
  "ru": 2070,
  "rue": 36297,
  "rug": 12476,
  "ruit": 26491,
  "rule": 28523,
  "rules": 43915,
  "rum": 10904,
  "rums": 31860,
  "run": 2962,
  "runner": 16537,
  "running": 12364,
  "rupt": 14709,
  "rush": 29349,
  "rust": 23705,
  "ry": 1506,
  "rying": 15975,
  "s": 29,
  "saf": 43425,
  "safe": 22725,
  "said": 28613,
  "sal": 26641,
  "same": 41690,
  "san": 14832,
  "sand": 39009,
  "sav": 27816,
  "saving": 15999,
  "say": 28357,
  "sburg": 16408,
  "sc": 3866,
  "scale": 8056,
  "scenes": 22270,
  "school": 8813,
  "sci": 43428,
  "screen": 9806,
  "scribe": 36037,
  "se": 1090,
  "sea": 16466,
  "sec": 8584,
  "second": 10815,
  "secret": 19301,
  "section": 22580,
  "security": 15506,
  "secut": 38338,
  "secution": 31068,
  "sed": 28308,
  "see": 7048,
  "seekers": 28626,
  "seen": 24196,
  "sel": 5317,
  "selected": 41642,
  "self": 13367,
  "sell": 5727,
  "selling": 11393,
  "sels": 27955,
  "semble": 26381,
  "sen": 7305,
  "sense": 36794,
  "sent": 19530,
  "sequ": 33430,
  "sequently": 35513,
  "ser": 12778,
  "serious": 21231,
  "service": 11131,
  "serving": 20017,
  "ses": 24151,
  "set": 8738,
  "setting": 19624,
  "severe": 26251,
  "sex": 8821,
  "sey": 4169,
  "sh": 1193,
  "shadow": 33717,
  "shake": 41820,
  "shaped": 15660,
  "sharing": 12828,
  "sharp": 41081,
  "she": 8877,
  "shire": 9959,
  "shock": 37316,
  "shot": 10393,
  "shots": 32705,
  "should": 17276,
  "show": 12005,
  "shut": 38354,
  "si": 11000,
  "sic": 15335,
  "sid": 24301,
  "side": 3730,
  "sie": 28692,
  "sight": 32764,
  "sign": 13033,
  "signed": 29328,
  "sil": 26239,
  "sim": 13092,
  "simple": 41918,
  "sin": 20338,
  "since": 30117,
  "sis": 20394,
  "site": 11953,
  "sized": 8407,
  "slave": 46203,
  "sle": 37945,
  "sm": 9426,
  "small": 23115,
  "smith": 21207,
  "sn": 22617,
  "so": 2527,
  "soever": 47543,
  "soft": 24810,
  "sold": 14908,
  "solid": 34887,
  "some": 12465,
  "someone": 40100,
  "something": 18891,
  "sometimes": 36368,
  "son": 1478,
  "source": 17747,
  "sp": 4182,
  "spe": 18462,
  "speaking": 20369,
  "spect": 25594,
  "spl": 34282,
  "sponsored": 16032,
  "spot": 27840,
  "spr": 34069,
  "sq": 31566,
  "sr": 37959,
  "ss": 7485,
  "st": 620,
  "stad": 21094,
  "stadt": 22487,
  "staff": 17360,
  "stage": 10850,
  "stal": 24370,
  "stan": 22398,
  "stand": 8490,
  "standard": 21993,
  "standing": 8190,
  "stant": 20034,
  "stantial": 31758,
  "star": 3641,
  "started": 33437,
  "state": 4897,
  "stated": 21075,
  "statement": 29963,
  "stay": 20952,
  "ste": 6526,
  "stead": 16118,
  "stein": 7864,
  "stellar": 45355,
  "sten": 11681,
  "step": 13975,
  "ster": 3121,
  "sters": 9230,
  "stery": 34821,
  "stock": 9607,
  "ston": 6712,
  "stone": 4670,
  "stood": 31935,
  "stop": 8287,
  "storm": 10868,
  "story": 6462,
  "str": 6031,
  "stra": 10750,
  "straight": 25868,
  "strate": 35817,
  "stration": 35431,
  "stream": 8656,
  "stri": 25354,
  "strike": 35023,
  "stro": 26764,
  "strong": 8355,
  "struct": 25384,
  "structed": 28354,
  "struction": 41287,
  "sts": 5019,
  "sty": 23822,
  "style": 5827,
  "su": 9228,
  "sub": 10936,
  "such": 16918,
  "suit": 18605,
  "sun": 21381,
  "supp": 16714,
  "support": 22930,
  "sur": 12557,
  "sure": 41404,
  "surprisingly": 33258,
  "susp": 32658,
  "sw": 4184,
  "sy": 8628,
  "syn": 38972,
  "t": 90,
  "ta": 4349,
  "tab": 34108,
  "tailed": 27970,
  "tain": 22003,
  "tained": 43672,
  "tains": 30759,
  "take": 16111,
  "taking": 16883,
  "talking": 34982,
  "tank": 24236,
  "tar": 11404,
  "target": 23976,
  "tarians": 46837,
  "te": 859,
  "tech": 9406,
  "technology": 31007,
  "ted": 5357,
  "teen": 13665,
  "tell": 26316,
  "telling": 31647,
  "ten": 3869,
  "ter": 1334,
  "tera": 31672,
  "tered": 10001,
  "tering": 14322,
  "term": 1279,
  "terms": 22091,
  "tern": 18995,
  "terror": 26213,
  "terrorism": 19151,
  "terrorist": 31456,
  "ters": 2696,
  "terson": 41065,
  "tery": 13237,
  "test": 21959,
  "testers": 29266,
  "tf": 41407,
  "th": 212,
  "than": 5652,
  "thank": 31653,
  "thanks": 39563,
  "that": 6025,
  "the": 627,
  "their": 25017,
  "thel": 30157,
  "then": 13040,
  "thening": 36262,
  "there": 8585,
  "these": 29902,
  "they": 10010,
  "thinking": 22710,
  "third": 12347,
  "thirds": 10224,
  "this": 9226,
  "though": 18401,
  "thought": 26086,
  "threat": 25836,
  "threatening": 10940,
  "three": 9983,
  "thro": 26636,
  "through": 11672,
  "throw": 26003,
  "thy": 23875,
  "tic": 13240,
  "tical": 39267,
  "tics": 32314,
  "tier": 15512,
  "ties": 23664,
  "time": 958,
  "ting": 2577,
  "tle": 12607,
  "tm": 26989,
  "to": 560,
  "today": 34375,
  "toe": 26383,
  "together": 31586,
  "told": 41042,
  "ton": 1054,
  "tone": 32612,
  "too": 15605,
  "top": 8766,
  "tor": 10321,
  "total": 30033,
  "town": 7171,
  "tr": 4328,
  "tra": 9738,
  "traditional": 30172,
  "trained": 23830,
  "trans": 9981,
  "tre": 18468,
  "true": 29225,
  "trump": 38060,
  "truth": 36014,
  "ts": 1872,
  "tt": 5967,
  "tta": 16597,
  "tted": 32368,
  "tur": 18346,
  "turn": 15922,
  "turned": 18255,
  "tv": 18724,
  "tw": 17137,
  "twitter": 1556,
  "two": 7109,
  "ty": 2553,
  "tz": 12527,
  "u": 257,
  "ua": 4324,
  "uable": 29785,
  "uador": 46676,
  "ual": 5564,
  "uality": 39416,
  "ually": 13851,
  "uan": 7372,
  "uate": 21269,
  "uated": 14133,
  "uates": 24597,
  "uating": 17071,
  "uation": 9762,
  "uations": 10184,
  "ub": 1792,
  "uba": 10452,
  "ube": 13345,
  "uben": 26517,
  "uble": 26633,
  "uc": 3964,
  "ucci": 13298,
  "uce": 15431,
  "uch": 4272,
  "ucing": 30623,
  "ucker": 21028,
  "ucking": 24029,
  "ucky": 19873,
  "uct": 21491,
  "uction": 27345,
  "uctions": 38024,
  "ud": 1906,
  "udd": 7027,
  "uddled": 23521,
  "ude": 6343,
  "uded": 15432,
  "udence": 40162,
  "udge": 14328,
  "udging": 34432,
  "uding": 20932,
  "udo": 23259,
  "uds": 23082,
  "ue": 1780,
  "ued": 6796,
  "uel": 8129,
  "ueller": 40594,
  "uer": 7414,
  "ues": 3663,
  "uez": 16191,
  "uf": 2951,
  "uff": 5865,
  "uffed": 16368,
  "uffer": 31006,
  "ufficient": 43022,
  "uffle": 15315,
  "ug": 3252,
  "uge": 11797,
  "ugh": 12967,
  "ugi": 40291,
  "ui": 3371,
  "uing": 12448,
  "uit": 6439,
  "uitous": 39583,
  "uity": 15147,
  "uk": 1350,
  "uka": 10620,
  "uke": 7480,
  "ukes": 23369,
  "uku": 20787,
  "ul": 922,
  "ula": 5571,
  "ular": 8244,
  "ulate": 10246,
  "ulated": 12944,
  "ulates": 15719,
  "ulating": 11539,
  "ulation": 11264,
  "ulations": 16685,
  "ule": 7590,
  "uled": 12841,
  "ulent": 25841,
  "ulf": 19509,
  "ulin": 27377,
  "uling": 17556,
  "ull": 5023,
  "ullah": 18778,
  "ulous": 19631,
  "uls": 11418,
  "ulsion": 31254,
  "ulsive": 25170,
  "ult": 6070,
  "ultane": 41954,
  "ulture": 17898,
  "um": 783,
  "uma": 5037,
  "umably": 44225,
  "umb": 4179,
  "umber": 9936,
  "umbers": 30806,
  "umble": 15373,
  "umbling": 16250,
  "umbo": 20031,
  "ume": 9271,
  "umer": 26229,
  "umerous": 41788,
  "umes": 19364,
  "umin": 18140,
  "uming": 20016,
  "umn": 24422,
  "ump": 7198,
  "umped": 25844,
  "umps": 11768,
  "ums": 8014,
  "un": 879,
  "una": 4989,
  "unc": 23735,
  "unch": 11842,
  "unci": 19856,
  "unct": 27688,
  "und": 3194,
  "under": 5087,
  "unders": 33152,
  "undo": 20870,
  "undrum": 35986,
  "une": 4438,
  "unes": 16454,
  "ung": 1545,
  "unity": 36564,
  "unk": 6435,
  "unks": 29201,
  "unless": 36100,
  "untarily": 41938,
  "until": 29510,
  "uous": 12685,
  "uously": 26314,
  "up": 658,
  "uper": 27226,
  "upid": 35820,
  "upon": 32630,
  "ups": 4489,
  "ur": 710,
  "ura": 3851,
  "urable": 24517,
  "uran": 25230,
  "urance": 12590,
  "uras": 33323,
  "urate": 23412,
  "uration": 27975,
  "urb": 13157,
  "urbed": 35250,
  "urchase": 16707,
  "urd": 6831,
  "urden": 25317,
  "ure": 2407,
  "ured": 4075,
  "ureen": 26743,
  "urer": 24653,
  "ures": 4123,
  "urg": 7150,
  "urger": 25278,
  "urgical": 19625,
  "urgy": 40673,
  "uries": 12755,
  "uring": 5206,
  "urity": 25075,
  "urn": 8629,
  "uro": 7367,
  "urrection": 47754,
  "urred": 27024,
  "urring": 16715,
  "urs": 4668,
  "ursed": 24417,
  "urt": 7363,
  "ury": 6801,
  "us": 687,
  "use": 3698,
  "used": 6199,
  "user": 12105,
  "uses": 9764,
  "ush": 3810,
  "ushed": 17387,
  "ushes": 27843,
  "ushing": 11286,
  "using": 10928,
  "usion": 15727,
  "usive": 30225,
  "usk": 14570,
  "usp": 26781,
  "uss": 4781,
  "ust": 4193,
  "usted": 15876,
  "usting": 19171,
  "usual": 33400,
  "ut": 1182,
  "utable": 41280,
  "utation": 31320,
  "utations": 31127,
  "ute": 4467,
  "uted": 13735,
  "uter": 13080,
  "utes": 11282,
  "uth": 5914,
  "uthor": 45944,
  "utic": 36123,
  "uties": 13472,
  "uting": 15024,
  "ution": 15175,
  "utm": 44992,
  "uto": 11207,
  "uton": 27520,
  "utor": 35853,
  "uts": 7046,
  "utsch": 20530,
  "utt": 9259,
  "uttered": 35758,
  "utz": 17602,
  "uy": 5781,
  "uz": 4987,
  "uzz": 13299,
  "uzzle": 46849,
  "v": 705,
  "va": 3952,
  "vae": 45897,
  "vag": 45145,
  "val": 6486,
  "vale": 23683,
  "vals": 21049,
  "van": 9965,
  "vard": 29013,
  "ve": 548,
  "ved": 5202,
  "vel": 5536,
  "ven": 2987,
  "venge": 31982,
  "vent": 9399,
  "venth": 31398,
  "vention": 20874,
  "ver": 2802,
  "verbal": 40328,
  "verbs": 44713,
  "vere": 12081,
  "verified": 37451,
  "verning": 29946,
  "vers": 3697,
  "verse": 15189,
  "version": 21747,
  "vert": 9942,
  "verted": 32938,
  "verting": 40606,
  "verts": 24038,
  "very": 5525,
  "ves": 3677,
  "vest": 13493,
  "vette": 36117,
  "vg": 45761,
  "vi": 6873,
  "via": 11409,
  "video": 14406,
  "view": 5877,
  "ville": 1352,
  "vin": 6320,
  "vind": 27501,
  "ving": 6645,
  "violent": 28330,
  "virt": 42660,
  "vis": 9578,
  "vision": 14675,
  "vo": 5766,
  "voc": 31375,
  "vol": 13728,
  "volent": 40180,
  "vote": 28465,
  "vr": 37032,
  "vre": 29416,
  "vs": 15597,
  "vt": 26390,
  "vv": 43336,
  "vy": 11454,
  "w": 605,
  "wa": 2739,
  "wage": 31881,
  "wait": 37405,
  "wald": 22964,
  "wan": 6531,
  "want": 32835,
  "war": 5557,
  "ward": 7767,
  "wark": 37232,
  "wart": 21660,
  "warts": 36560,
  "was": 7325,
  "wash": 31441,
  "washed": 39956,
  "washing": 36230,
  "watch": 11018,
  "water": 5412,
  "waves": 22424,
  "way": 1970,
  "wb": 41161,
  "we": 1694,
  "weak": 25785,
  "weapons": 43507,
  "week": 3583,
  "ween": 40655,
  "well": 3056,
  "were": 17341,
  "western": 16507,
  "wh": 11613,
  "what": 12196,
  "whatever": 38745,
  "wheel": 13630,
  "when": 14746,
  "where": 8569,
  "whether": 29676,
  "which": 5488,
  "while": 20235,
  "white": 9830,
  "who": 8155,
  "whose": 36965,
  "wic": 33127,
  "wich": 11645,
  "wide": 6445,
  "wife": 12295,
  "wik": 39224,
  "wild": 29633,
  "will": 6677,
  "win": 5640,
  "wing": 5577,
  "winning": 5189,
  "wire": 11208,
  "witch": 32984,
  "with": 5632,
  "without": 19010,
  "wives": 17226,
  "wl": 42448,
  "wo": 14869,
  "woman": 7760,
  "won": 17526,
  "word": 14742,
  "words": 30938,
  "work": 6014,
  "worked": 25765,
  "working": 10733,
  "works": 11655,
  "world": 8331,
  "worldly": 39860,
  "worst": 24390,
  "worth": 5985,
  "would": 14656,
  "wra": 38610,
  "writing": 13293,
  "written": 23460,
  "www": 1401,
  "wy": 13434,
  "x": 1178,
  "xious": 39024,
  "xit": 37845,
  "xx": 29061,
  "y": 219,
  "ya": 2636,
  "yan": 7010,
  "yang": 20603,
  "ye": 4717,
  "year": 180,
  "years": 12857,
  "yellow": 34103,
  "yer": 6426,
  "yers": 15862,
  "yet": 23372,
  "ying": 4048,
  "ylon": 36256,
  "ym": 8307,
  "yn": 3892,
  "you": 6968,
  "young": 26840,
  "youtu": 45066,
  "yp": 18198,
  "yrs": 39542,
  "ys": 2459,
  "ysical": 45537,
  "ysics": 33823,
  "z": 329,
  "za": 2478,
  "ze": 2158,
  "zek": 23370,
  "zen": 7889,
  "zens": 37016,
  "zer": 6403,
  "zero": 18556,
  "zhou": 18604,
  "zi": 6182,
  "zing": 10293,
  "zo": 6527,
  "zone": 13930,
  "zy": 5144,
  "zz": 7399,
  "Ċ": 50118,
  "ĊĊ": 50140,
  "Ġ": 1437,
  "ĠA": 83,
  "ĠAAA": 17147,
  "ĠAB": 6266,
  "ĠABC": 3943,
  "ĠACT": 12928,
  "ĠAD": 4516,
  "ĠAFB": 45453,
  "ĠAFP": 5040,
  "ĠAFTER": 29856,
  "ĠAG": 5680,
  "ĠAGA": 32114,
  "ĠAIR": 23464,
  "ĠAJ": 15348,
  "ĠAK": 14530,
  "ĠAL": 6019,
  "ĠALL": 12389,
  "ĠALSO": 9459,
  "ĠAM": 3326,
  "ĠAMER": 37501,
  "ĠAMERICA": 41661,
  "ĠAN": 5102,
  "ĠAND": 4248,
  "ĠANN": 31256,
  "ĠANY": 16005,
  "ĠAP": 1480,
  "ĠAPP": 30235,
  "ĠAR": 5495,
  "ĠARE": 10616,
  "ĠARM": 20387,
  "ĠART": 28761,
  "ĠAS": 6015,
  "ĠAT": 3263,
  "ĠATF": 36768,
  "ĠATT": 28866,
  "ĠAW": 18463,
  "ĠAb": 2060,
  "ĠAbbey": 20481,
  "ĠAbd": 15312,
  "ĠAbdel": 18392,
  "ĠAbdul": 9249,
  "ĠAbe": 8336,
  "ĠAbedin": 41789,
  "ĠAbel": 29243,
  "ĠAbout": 1936,
  "ĠAbove": 19935,
  "ĠAbraham": 13717,
  "ĠAbrams": 18306,
  "ĠAbsolutely": 23743,
  "ĠAbu": 4896,
  "ĠAbuse": 23827,
  "ĠAc": 6208,
  "ĠAcc": 5438,
  "ĠAccess": 8076,
  "ĠAccording": 767,
  "ĠAccordingly": 29129,
  "ĠAccount": 16036,
  "ĠAccountability": 23572,
  "ĠAct": 1783,
  "ĠAction": 5828,
  "ĠActiv": 18953,
  "ĠActive": 14818,
  "ĠActivities": 26476,
  "ĠActs": 37219,
  "ĠActually": 18894,
  "ĠAd": 1614,
  "ĠAdam": 3086,
  "ĠAdditional": 7655,
  "ĠAddress": 17416,
  "ĠAdminist": 29781,
  "ĠAdministration": 4237,
  "ĠAdministrative": 25233,
  "ĠAdolf": 32437,
  "ĠAdult": 20395,
  "ĠAdviser": 19885,
  "ĠAdvisor": 13050,
  "ĠAdvocate": 19248,
  "ĠAerospace": 22479,
  "ĠAf": 6710,
  "ĠAff": 11176,
  "ĠAffairs": 4702,
  "ĠAfghan": 7649,
  "ĠAfghanistan": 4035,
  "ĠAfrica": 1327,
  "ĠAfrican": 1704,
  "ĠAfter": 572,
  "ĠAg": 3303,
  "ĠAgain": 7574,
  "ĠAgainst": 9174,
  "ĠAgency": 3131,
  "ĠAgenda": 28193,
  "ĠAgent": 18497,
  "ĠAgents": 24854,
  "ĠAges": 32246,
  "ĠAgg": 14644,
  "ĠAgo": 42259,
  "ĠAgreement": 8759,
  "ĠAgriculture": 8004,
  "ĠAgu": 11648,
  "ĠAh": 7746,
  "ĠAhmad": 12153,
  "ĠAhmed": 6916,
  "ĠAir": 1754,
  "ĠAires": 20578,
  "ĠAirport": 4414,
  "ĠAk": 3773,
  "ĠAl": 726,
  "ĠAlabama": 3053,
  "ĠAlan": 6284,
  "ĠAlas": 31521,
  "ĠAlban": 25920,
  "ĠAlbuquerque": 23378,
  "ĠAlcohol": 17794,
  "ĠAle": 8445,
  "ĠAlert": 14718,
  "ĠAlex": 2618,
  "ĠAlexand": 21441,
  "ĠAlexander": 4837,
  "ĠAlexandria": 15748,
  "ĠAli": 4110,
  "ĠAlien": 30296,
  "ĠAlive": 32190,
  "ĠAll": 404,
  "ĠAllah": 20788,
  "ĠAllan": 16817,
  "ĠAlleg": 12447,
  "ĠAllen": 3823,
  "ĠAlliance": 6035,
  "ĠAllied": 23086,
  "ĠAllison": 14503,
  "ĠAlmighty": 37990,
  "ĠAlpha": 7829,
  "ĠAlso": 1578,
  "ĠAlt": 7330,
  "ĠAlternative": 22439,
  "ĠAlthough": 2223,
  "ĠAlways": 14947,
  "ĠAm": 1918,
  "ĠAmazon": 1645,
  "ĠAmbassador": 9175,
  "ĠAmber": 11899,
  "ĠAmendment": 8352,
  "ĠAmer": 14593,
  "ĠAmerica": 730,
  "ĠAmerican": 470,
  "ĠAmericans": 1791,
  "ĠAmericas": 11685,
  "ĠAmmo": 47472,
  "ĠAmmunition": 46643,
  "ĠAmong": 3687,
  "ĠAmos": 27269,
  "ĠAmsterdam": 16342,
  "ĠAmy": 6918,
  "ĠAn": 660,
  "ĠAnalysis": 5213,
  "ĠAnalyst": 9821,
  "ĠAnd": 178,
  "ĠAndersen": 23248,
  "ĠAnderson": 3452,
  "ĠAndrea": 9929,
  "ĠAndreas": 19494,
  "ĠAndrew": 2224,
  "ĠAndromeda": 43866,
  "ĠAng": 7413,
  "ĠAngel": 6896,
  "ĠAngela": 7693,
  "ĠAngeles": 1422,
  "ĠAngelo": 25348,
  "ĠAnglo": 20798,
  "ĠAngry": 32420,
  "ĠAnita": 21915,
  "ĠAnn": 3921,
  "ĠAnna": 7687,
  "ĠAnne": 7896,
  "ĠAnniversary": 23741,
  "ĠAnother": 2044,
  "ĠAnt": 3702,
  "ĠAnthony": 3173,
  "ĠAnti": 9511,
  "ĠAnton": 12929,
  "ĠAntonio": 4578,
  "ĠAny": 5053,
  "ĠAnyone": 6142,
  "ĠAp": 8712,
  "ĠApost": 40201,
  "ĠApostles": 45805,
  "ĠApp": 3166,
  "ĠAppalachian": 28480,
  "ĠApparently": 15817,
  "ĠAppeal": 16049,
  "ĠAppeals": 13248,
  "ĠApple": 1257,
  "ĠApplied": 24298,
  "ĠAppro": 23236,
  "ĠApril": 587,
  "ĠAr": 1586,
  "ĠAra": 26560,
  "ĠArab": 4681,
  "ĠArabia": 3466,
  "ĠArabic": 19645,
  "ĠArabs": 29798,
  "ĠArch": 10832,
  "ĠArchbishop": 19486,
  "ĠArchives": 26844,
  "ĠArd": 26433,
  "ĠAre": 3945,
  "ĠArea": 4121,
  "ĠArgentina": 5244,
  "ĠArgentine": 14173,
  "ĠAri": 6416,
  "ĠArizona": 2605,
  "ĠArk": 19365,
  "ĠArm": 10617,
  "ĠArmageddon": 44586,
  "ĠArmed": 11453,
  "ĠArms": 24166,
  "ĠArmy": 2938,
  "ĠArrest": 21827,
  "ĠArt": 3292,
  "ĠArthur": 9411,
  "ĠArticle": 6776,
  "ĠArticles": 15219,
  "ĠArtists": 24163,
  "ĠArts": 4455,
  "ĠAs": 287,
  "ĠAsh": 4653,
  "ĠAshley": 7558,
  "ĠAsia": 1817,
  "ĠAsian": 3102,
  "ĠAside": 14747,
  "ĠAsk": 12738,
  "ĠAss": 6331,
  "ĠAssad": 8021,
  "ĠAssange": 18705,
  "ĠAssass": 42731,
  "ĠAssault": 27143,
  "ĠAssembly": 3389,
  "ĠAssets": 20741,
  "ĠAssistant": 6267,
  "ĠAssociate": 16700,
  "ĠAssociated": 1562,
  "ĠAssociation": 1544,
  "ĠAst": 8937,
  "ĠAstron": 24494,
  "ĠAsylum": 40868,
  "ĠAt": 497,
  "ĠAth": 17463,
  "ĠAthens": 11198,
  "ĠAtlanta": 3317,
  "ĠAtlantic": 5038,
  "ĠAtlas": 22705,
  "ĠAtomic": 30169,
  "ĠAtt": 7279,
  "ĠAttack": 23800,
  "ĠAttacks": 39465,
  "ĠAttempt": 29883,
  "ĠAttorney": 2745,
  "ĠAud": 11917,
  "ĠAudio": 20555,
  "ĠAudit": 29320,
  "ĠAug": 2049,
  "ĠAugust": 830,
  "ĠAuschwitz": 36531,
  "ĠAustin": 4224,
  "ĠAustralia": 1221,
  "ĠAustralian": 2059,
  "ĠAustria": 9950,
  "ĠAustrian": 15710,
  "ĠAut": 9496,
  "ĠAuthor": 14338,
  "ĠAuthorities": 4512,
  "ĠAuthority": 4305,
  "ĠAuto": 8229,
  "ĠAux": 32119,
  "ĠAven": 17204,
  "ĠAvenue": 2666,
  "ĠAw": 11614,
  "ĠAward": 3683,
  "ĠB": 163,
  "ĠBACK": 23098,
  "ĠBAR": 26676,
  "ĠBASE": 38018,
  "ĠBBC": 3295,
  "ĠBC": 9543,
  "ĠBDS": 34373,
  "ĠBE": 6362,
  "ĠBLACK": 34101,
  "ĠBR": 6823,
  "ĠBRA": 34329,
  "ĠBRE": 13530,
  "ĠBUS": 29915,
  "ĠBY": 10786,
  "ĠBa": 5597,
  "ĠBaal": 43967,
  "ĠBach": 13312,
  "ĠBack": 3727,
  "ĠBackground": 32070,
  "ĠBacon": 26157,
  "ĠBad": 5654,
  "ĠBag": 13379,
  "ĠBaghd": 42324,
  "ĠBaghdad": 16121,
  "ĠBak": 10856,
  "ĠBaker": 5643,
  "ĠBal": 4317,
  "ĠBald": 19123,
  "ĠBalk": 28093,
  "ĠBalt": 33766,
  "ĠBaltic": 24532,
  "ĠBam": 23871,
  "ĠBan": 5981,
  "ĠBand": 6191,
  "ĠBangkok": 15398,
  "ĠBank": 788,
  "ĠBans": 35596,
  "ĠBapt": 42856,
  "ĠBaptist": 9457,
  "ĠBar": 1731,
  "ĠBarack": 4282,
  "ĠBarb": 12897,
  "ĠBarbara": 4810,
  "ĠBarclays": 8536,
  "ĠBarn": 8514,
  "ĠBarnes": 10164,
  "ĠBarr": 10108,
  "ĠBarrett": 13264,
  "ĠBarry": 7600,
  "ĠBas": 7093,
  "ĠBase": 11056,
  "ĠBash": 13117,
  "ĠBashar": 13524,
  "ĠBasil": 26429,
  "ĠBass": 12554,
  "ĠBast": 18826,
  "ĠBat": 8324,
  "ĠBatt": 20110,
  "ĠBattle": 9846,
  "ĠBattlefield": 36954,
  "ĠBattles": 42176,
  "ĠBav": 22662,
  "ĠBay": 1501,
  "ĠBe": 1456,
  "ĠBeach": 2467,
  "ĠBeacon": 25207,
  "ĠBeast": 13645,
  "ĠBeautiful": 20081,
  "ĠBec": 18870,
  "ĠBecause": 3047,
  "ĠBeck": 10911,
  "ĠBeen": 30857,
  "ĠBefore": 3224,
  "ĠBeginning": 22856,
  "ĠBeh": 18775,
  "ĠBehind": 17285,
  "ĠBeijing": 3332,
  "ĠBeing": 8374,
  "ĠBeirut": 27356,
  "ĠBel": 4231,
  "ĠBelfast": 14837,
  "ĠBelgian": 11731,
  "ĠBell": 3043,
  "ĠBella": 13172,
  "ĠBelow": 4421,
  "ĠBelt": 10322,
  "ĠBen": 1664,
  "ĠBenedict": 20742,
  "ĠBenjamin": 7523,
  "ĠBer": 4323,
  "ĠBerg": 15303,
  "ĠBerger": 18738,
  "ĠBerkeley": 10817,
  "ĠBerlin": 5459,
  "ĠBerm": 42675,
  "ĠBern": 6552,
  "ĠBernard": 11364,
  "ĠBernardino": 18729,
  "ĠBernie": 13191,
  "ĠBernstein": 18211,
  "ĠBert": 12975,
  "ĠBest": 2700,
  "ĠBet": 6525,
  "ĠBetter": 11238,
  "ĠBever": 17524,
  "ĠBeyon": 12674,
  "ĠBhar": 11452,
  "ĠBible": 11005,
  "ĠBiblical": 40802,
  "ĠBiden": 15478,
  "ĠBie": 33541,
  "ĠBig": 1776,
  "ĠBill": 1585,
  "ĠBillion": 17102,
  "ĠBin": 15495,
  "ĠBiological": 33271,
  "ĠBishop": 8163,
  "ĠBl": 2091,
  "ĠBlack": 1378,
  "ĠBlair": 11371,
  "ĠBlanc": 19522,
  "ĠBless": 36183,
  "ĠBlessed": 37824,
  "ĠBlessing": 39378,
  "ĠBlind": 22151,
  "ĠBlock": 11700,
  "ĠBlood": 11391,
  "ĠBloody": 38274,
  "ĠBloomberg": 6686,
  "ĠBlow": 38181,
  "ĠBlue": 2692,
  "ĠBlumenthal": 30465,
  "ĠBoard": 1785,
  "ĠBob": 3045,
  "ĠBody": 13048,
  "ĠBoehner": 31344,
  "ĠBolton": 12160,
  "ĠBomb": 14521,
  "ĠBombs": 42263,
  "ĠBon": 5520,
  "ĠBond": 7291,
  "ĠBook": 5972,
  "ĠBooker": 14725,
  "ĠBooks": 16206,
  "ĠBoot": 21524,
  "ĠBooth": 21636,
  "ĠBorder": 8323,
  "ĠBorders": 23987,
  "ĠBoston": 2278,
  "ĠBot": 13954,
  "ĠBoth": 1868,
  "ĠBoulevard": 9286,
  "ĠBour": 13023,
  "ĠBow": 9552,
  "ĠBoy": 5637,
  "ĠBr": 2265,
  "ĠBra": 9076,
  "ĠBrad": 4770,
  "ĠBrady": 5333,
  "ĠBram": 20331,
  "ĠBranch": 12159,
  "ĠBrand": 7379,
  "ĠBrandon": 5805,
  "ĠBraz": 30096,
  "ĠBrazil": 2910,
  "ĠBrazilian": 6606,
  "ĠBre": 5811,
  "ĠBread": 28722,
  "ĠBreak": 13211,
  "ĠBreakfast": 18799,
  "ĠBreaking": 17252,
  "ĠBreitbart": 17441,
  "ĠBren": 25431,
  "ĠBrendan": 13015,
  "ĠBrennan": 14639,
  "ĠBret": 27547,
  "ĠBrett": 7151,
  "ĠBrexit": 2404,
  "ĠBri": 14508,
  "ĠBrian": 2995,
  "ĠBridge": 4679,
  "ĠBrief": 14201,
  "ĠBrigade": 24715,
  "ĠBring": 16827,
  "ĠBrit": 9446,
  "ĠBritain": 1444,
  "ĠBritish": 1089,
  "ĠBritons": 24226,
  "ĠBrittany": 20298,
  "ĠBro": 4994,
  "ĠBroken": 28660,
  "ĠBrookings": 33725,
  "ĠBrother": 13233,
  "ĠBrotherhood": 19767,
  "ĠBrothers": 10144,
  "ĠBrow": 13742,
  "ĠBrown": 1547,
  "ĠBruce": 5409,
  "ĠBrussels": 6497,
  "ĠBrut": 32702,
  "ĠBryant": 7701,
  "ĠBuc": 13186,
  "ĠBuchanan": 24825,
  "ĠBudapest": 22911,
  "ĠBuddha": 37714,
  "ĠBuddhism": 40597,
  "ĠBuenos": 20803,
  "ĠBug": 22700,
  "ĠBuilding": 6919,
  "ĠBuilt": 22811,
  "ĠBuk": 18607,
  "ĠBul": 13020,
  "ĠBull": 6518,
  "ĠBulletin": 27755,
  "ĠBundy": 26247,
  "ĠBur": 4273,
  "ĠBureau": 4750,
  "ĠBurke": 12032,
  "ĠBurn": 7960,
  "ĠBurning": 33166,
  "ĠBus": 6926,
  "ĠBush": 3516,
  "ĠBusiness": 2090,
  "ĠBut": 125,
  "ĠBuy": 4228,
  "ĠBuzzFeed": 14348,
  "ĠBy": 870,
  "ĠByzantine": 45101,
  "ĠC": 230,
  "ĠCA": 5267,
  "ĠCAN": 12471,
  "ĠCAR": 11903,
  "ĠCB": 6933,
  "ĠCBC": 12877,
  "ĠCBS": 3710,
  "ĠCC": 9841,
  "ĠCCTV": 14363,
  "ĠCD": 7522,
  "ĠCE": 16327,
  "ĠCEO": 1324,
  "ĠCH": 3858,
  "ĠCI": 19104,
  "ĠCIA": 8335,
  "ĠCITY": 8100,
  "ĠCJ": 17468,
  "ĠCLA": 38528,
  "ĠCLE": 25511,
  "ĠCNBC": 17826,
  "ĠCNN": 3480,
  "ĠCO": 6247,
  "ĠCOL": 14857,
  "ĠCOM": 15823,
  "ĠCONC": 27105,
  "ĠCOUNTY": 12629,
  "ĠCRE": 28122,
  "ĠCS": 7038,
  "ĠCST": 24425,
  "ĠCa": 8316,
  "ĠCabinet": 7062,
  "ĠCable": 14433,
  "ĠCad": 15307,
  "ĠCaesar": 28042,
  "ĠCain": 20354,
  "ĠCait": 18901,
  "ĠCal": 2912,
  "ĠCalif": 6863,
  "ĠCalifornia": 886,
  "ĠCall": 3310,
  "ĠCaller": 25368,
  "ĠCalling": 24178,
  "ĠCalls": 24513,
  "ĠCalvin": 17079,
  "ĠCam": 4536,
  "ĠCambridge": 6912,
  "ĠCame": 31476,
  "ĠCamera": 11149,
  "ĠCameron": 5628,
  "ĠCamp": 4746,
  "ĠCampaign": 11068,
  "ĠCampbell": 5925,
  "ĠCampus": 14416,
  "ĠCan": 2615,
  "ĠCanada": 896,
  "ĠCanadian": 1563,
  "ĠCand": 11323,
  "ĠCandidate": 30598,
  "ĠCandy": 25575,
  "ĠCannot": 45289,
  "ĠCanon": 22180,
  "ĠCanterbury": 26320,
  "ĠCap": 5133,
  "ĠCapital": 1867,
  "ĠCapitol": 6107,
  "ĠCaption": 19754,
  "ĠCar": 1653,
  "ĠCarbon": 17962,
  "ĠCard": 5866,
  "ĠCardinal": 13966,
  "ĠCardinals": 6293,
  "ĠCare": 3800,
  "ĠCargo": 36375,
  "ĠCaribbean": 7599,
  "ĠCarlo": 20570,
  "ĠCarlos": 6778,
  "ĠCarlson": 15988,
  "ĠCarm": 10636,
  "ĠCarolina": 1961,
  "ĠCaroline": 11820,
  "ĠCarry": 36241,
  "ĠCart": 13142,
  "ĠCarter": 5306,
  "ĠCase": 11109,
  "ĠCases": 35658,
  "ĠCash": 7871,
  "ĠCasino": 14049,
  "ĠCass": 11710,
  "ĠCassandra": 35476,
  "ĠCast": 6719,
  "ĠCastle": 8834,
  "ĠCastro": 12104,
  "ĠCatalan": 14840,
  "ĠCatalog": 46390,
  "ĠCatherine": 10530,
  "ĠCatholic": 4019,
  "ĠCatholicism": 42580,
  "ĠCatholics": 22509,
  "ĠCaucus": 19404,
  "ĠCel": 13230,
  "ĠCelsius": 15807,
  "ĠCenter": 824,
  "ĠCentral": 1505,
  "ĠCentre": 2521,
  "ĠCentury": 9348,
  "ĠCh": 732,
  "ĠChair": 8381,
  "ĠChairman": 3356,
  "ĠChak": 20009,
  "ĠChallenges": 30380,
  "ĠChamberlain": 31737,
  "ĠChambers": 13962,
  "ĠChancellor": 8948,
  "ĠChand": 12598,
  "ĠChange": 7229,
  "ĠChannel": 5331,
  "ĠChap": 19882,
  "ĠChapter": 8749,
  "ĠCharge": 23124,
  "ĠCharges": 29440,
  "ĠCharles": 3163,
  "ĠCharleston": 12118,
  "ĠCharlie": 6127,
  "ĠCharlottesville": 11234,
  "ĠChavez": 14916,
  "ĠCheck": 4254,
  "ĠChecks": 41769,
  "ĠChelsea": 3098,
  "ĠChicago": 1568,
  "ĠChick": 23569,
  "ĠChief": 1231,
  "ĠChiefs": 6535,
  "ĠChild": 7442,
  "ĠChildren": 4278,
  "ĠChile": 9614,
  "ĠChilean": 23998,
  "ĠChin": 17289,
  "ĠChina": 436,
  "ĠChinese": 1111,
  "ĠChop": 15395,
  "ĠChris": 1573,
  "ĠChrist": 4845,
  "ĠChristian": 2412,
  "ĠChristianity": 22085,
  "ĠChristians": 9278,
  "ĠChristina": 15990,
  "ĠChristine": 10248,
  "ĠChristmas": 1619,
  "ĠChristopher": 5469,
  "ĠChronicle": 14486,
  "ĠChuck": 8049,
  "ĠChurch": 2197,
  "ĠChurchill": 16930,
  "ĠCig": 38906,
  "ĠCincinnati": 6322,
  "ĠCirc": 26762,
  "ĠCircus": 31194,
  "ĠCitizens": 14047,
  "ĠCity": 412,
  "ĠCivil": 5280,
  "ĠCl": 2893,
  "ĠClaim": 33283,
  "ĠClaims": 28128,
  "ĠClancy": 37642,
  "ĠClapper": 33068,
  "ĠClar": 18407,
  "ĠClarence": 18745,
  "ĠClark": 4433,
  "ĠClarke": 10139,
  "ĠClause": 36913,
  "ĠClayton": 13616,
  "ĠCle": 8388,
  "ĠClean": 10326,
  "ĠClear": 11381,
  "ĠClearly": 16975,
  "ĠClement": 16282,
  "ĠCleveland": 2986,
  "ĠClick": 2578,
  "ĠClim": 35601,
  "ĠClinton": 2235,
  "ĠClintons": 38259,
  "ĠClown": 35125,
  "ĠClub": 2009,
  "ĠCluster": 41261,
  "ĠCo": 944,
  "ĠCoalition": 10410,
  "ĠCoat": 31739,
  "ĠCode": 8302,
  "ĠCody": 11785,
  "ĠCoff": 19025,
  "ĠCohen": 4920,
  "ĠCol": 3182,
  "ĠCold": 7810,
  "ĠColl": 6888,
  "ĠCollege": 1821,
  "ĠCollins": 5415,
  "ĠCologne": 31227,
  "ĠColonel": 21253,
  "ĠColumbia": 4635,
  "ĠColumbus": 7270,
  "ĠColumn": 32212,
  "ĠCom": 4556,
  "ĠCombat": 30456,
  "ĠCombine": 26128,
  "ĠCome": 8814,
  "ĠComes": 35307,
  "ĠComet": 30594,
  "ĠComey": 5829,
  "ĠComfort": 30202,
  "ĠComing": 12540,
  "ĠComm": 9204,
  "ĠCommand": 9539,
  "ĠCommander": 14984,
  "ĠCommerce": 5669,
  "ĠCommission": 1463,
  "ĠCommissioner": 4589,
  "ĠCommittee": 1674,
  "ĠCommittees": 36320,
  "ĠCommon": 9732,
  "ĠCommons": 10271,
  "ĠCommonwealth": 8193,
  "ĠCommun": 29347,
  "ĠCommunication": 17051,
  "ĠCommunications": 6076,
  "ĠCommunist": 12416,
  "ĠCommunists": 42695,
  "ĠCommunity": 2573,
  "ĠComp": 10081,
  "ĠCompl": 20722,
  "ĠCompliance": 32611,
  "ĠComprehensive": 23539,
  "ĠCon": 2585,
  "ĠConcert": 16581,
  "ĠConclusion": 23518,
  "ĠConcord": 17994,
  "ĠCond": 12108,
  "ĠConduct": 20538,
  "ĠConf": 10303,
  "ĠConference": 2815,
  "ĠCong": 12249,
  "ĠCongo": 11536,
  "ĠCongratulations": 24953,
  "ĠCongress": 1148,
  "ĠCongressional": 9588,
  "ĠCongressman": 18167,
  "ĠConn": 9835,
  "ĠConnecticut": 6520,
  "ĠConnection": 29759,
  "ĠConquest": 45550,
  "ĠConrad": 24078,
  "ĠCons": 9051,
  "ĠConservative": 6855,
  "ĠConservatives": 13251,
  "ĠConsortium": 31693,
  "ĠConst": 11242,
  "ĠConstantinople": 45662,
  "ĠConstitution": 5879,
  "ĠConstitutional": 18221,
  "ĠConsult": 15850,
  "ĠCont": 7555,
  "ĠContent": 12803,
  "ĠContin": 21803,
  "ĠContinent": 44027,
  "ĠContinue": 5603,
  "ĠContinued": 16167,
  "ĠContributions": 42927,
  "ĠControl": 6007,
  "ĠConvention": 9127,
  "ĠConway": 13896,
  "ĠCooper": 5097,
  "ĠCooperation": 18204,
  "ĠCoord": 25138,
  "ĠCoordinator": 19602,
  "ĠCop": 9351,
  "ĠCopy": 22279,
  "ĠCor": 2812,
  "ĠCorbyn": 10113,
  "ĠCord": 11931,
  "ĠCorey": 10855,
  "ĠCorinthians": 42028,
  "ĠCorker": 22072,
  "ĠCorm": 21760,
  "ĠCorn": 10217,
  "ĠCorporate": 9299,
  "ĠCorporation": 2824,
  "ĠCorps": 8848,
  "ĠCorpus": 28556,
  "ĠCorrect": 37234,
  "ĠCorrection": 35648,
  "ĠCorrespond": 24388,
  "ĠCorruption": 28756,
  "ĠCors": 27950,
  "ĠCort": 16138,
  "ĠCory": 15405,
  "ĠCost": 7860,
  "ĠCould": 9918,
  "ĠCoun": 10047,
  "ĠCouncil": 1080,
  "ĠCounsel": 11872,
  "ĠCount": 12440,
  "ĠCountdown": 40308,
  "ĠCounter": 19271,
  "ĠCountry": 5093,
  "ĠCounty": 413,
  "ĠCourt": 837,
  "ĠCourtney": 14872,
  "ĠCovenant": 32975,
  "ĠCover": 18652,
  "ĠCowboy": 34584,
  "ĠCox": 8278,
  "ĠCrab": 25908,
  "ĠCraig": 5369,
  "ĠCrawford": 11245,
  "ĠCreate": 21384,
  "ĠCreated": 32966,
  "ĠCreating": 28755,
  "ĠCreation": 37520,
  "ĠCreator": 36168,
  "ĠCreed": 27364,
  "ĠCrescent": 22226,
  "ĠCrim": 22548,
  "ĠCrime": 6624,
  "ĠCrimes": 21203,
  "ĠCriminal": 10203,
  "ĠCrisis": 19330,
  "ĠCroatia": 11437,
  "ĠCrom": 27538,
  "ĠCrosby": 15656,
  "ĠCross": 4415,
  "ĠCrossing": 27245,
  "ĠCrowd": 24544,
  "ĠCrown": 5748,
  "ĠCru": 13876,
  "ĠCrus": 24510,
  "ĠCruz": 3590,
  "ĠCub": 18385,
  "ĠCuba": 8455,
  "ĠCuban": 12261,
  "ĠCultural": 15309,
  "ĠCunning": 47866,
  "ĠCup": 968,
  "ĠCur": 6781,
  "ĠCurrently": 7519,
  "ĠCustoms": 10465,
  "ĠCyber": 12324,
  "ĠCynthia": 16589,
  "ĠCyprus": 13303,
  "ĠD": 211,
  "ĠDA": 9036,
  "ĠDACA": 12215,
  "ĠDAY": 16995,
  "ĠDC": 5815,
  "ĠDD": 27932,
  "ĠDE": 5885,
  "ĠDEC": 16718,
  "ĠDEF": 36622,
  "ĠDEL": 16286,
  "ĠDES": 24566,
  "ĠDHS": 23066,
  "ĠDI": 15795,
  "ĠDIS": 15421,
  "ĠDIY": 22875,
  "ĠDNC": 22252,
  "ĠDO": 14010,
  "ĠDOJ": 19984,
  "ĠDON": 24980,
  "ĠDOWN": 20685,
  "ĠDR": 10994,
  "ĠDU": 21007,
  "ĠDUI": 20244,
  "ĠDUP": 22598,
  "ĠDa": 8318,
  "ĠDaily": 1681,
  "ĠDaisy": 25246,
  "ĠDak": 17564,
  "ĠDakota": 6223,
  "ĠDallas": 3160,
  "ĠDalton": 16994,
  "ĠDamage": 33571,
  "ĠDamascus": 12493,
  "ĠDan": 2503,
  "ĠDana": 11014,
  "ĠDaniel": 3028,
  "ĠDanielle": 15156,
  "ĠDaniels": 8542,
  "ĠDanny": 6937,
  "ĠDar": 5355,
  "ĠDarren": 11335,
  "ĠData": 5423,
  "ĠDate": 10566,
  "ĠDave": 4475,
  "ĠDavid": 871,
  "ĠDavis": 2505,
  "ĠDawn": 13199,
  "ĠDawson": 14820,
  "ĠDay": 1053,
  "ĠDays": 10046,
  "ĠDe": 926,
  "ĠDead": 9088,
  "ĠDeadline": 22399,
  "ĠDeal": 10979,
  "ĠDeals": 28272,
  "ĠDean": 6450,
  "ĠDear": 12191,
  "ĠDeath": 11644,
  "ĠDeb": 10532,
  "ĠDebate": 36743,
  "ĠDebbie": 13994,
  "ĠDeborah": 18878,
  "ĠDec": 1502,
  "ĠDecember": 719,
  "ĠDeclaration": 24777,
  "ĠDeep": 8248,
  "ĠDef": 7858,
  "ĠDefeat": 43173,
  "ĠDefence": 7518,
  "ĠDefense": 4545,
  "ĠDegree": 27631,
  "ĠDel": 3011,
  "ĠDem": 5245,
  "ĠDemand": 15936,
  "ĠDemocracy": 17639,
  "ĠDemocrat": 3661,
  "ĠDemocratic": 1557,
  "ĠDemocrats": 1574,
  "ĠDemon": 19134,
  "ĠDems": 27796,
  "ĠDen": 6743,
  "ĠDenmark": 10060,
  "ĠDennis": 8093,
  "ĠDep": 6748,
  "ĠDepartment": 641,
  "ĠDeposit": 28943,
  "ĠDept": 27212,
  "ĠDeputy": 4269,
  "ĠDer": 6113,
  "ĠDerek": 9520,
  "ĠDespite": 2285,
  "ĠDestiny": 23313,
  "ĠDestroy": 43961,
  "ĠDestruction": 43207,
  "ĠDet": 11185,
  "ĠDetails": 10574,
  "ĠDetective": 13924,
  "ĠDetention": 23527,
  "ĠDetroit": 2921,
  "ĠDev": 7439,
  "ĠDevelopment": 2717,
  "ĠDevices": 18205,
  "ĠDi": 3643,
  "ĠDialogue": 33854,
  "ĠDiane": 13649,
  "ĠDianne": 24488,
  "ĠDick": 8639,
  "ĠDid": 6553,
  "ĠDidn": 31940,
  "ĠDie": 6817,
  "ĠDiego": 3402,
  "ĠDigital": 6282,
  "ĠDign": 35291,
  "ĠDiplom": 24921,
  "ĠDirector": 1678,
  "ĠDirectors": 12131,
  "ĠDis": 6310,
  "ĠDisaster": 20527,
  "ĠDisc": 19020,
  "ĠDispatch": 29517,
  "ĠDist": 11281,
  "ĠDistrict": 1384,
  "ĠDiv": 12763,
  "ĠDiversity": 25123,
  "ĠDivine": 35970,
  "ĠDivision": 2925,
  "ĠDo": 1832,
  "ĠDock": 25472,
  "ĠDoctors": 14404,
  "ĠDoctrine": 43989,
  "ĠDocument": 27246,
  "ĠDocuments": 32682,
  "ĠDodd": 18753,
  "ĠDodge": 16931,
  "ĠDoes": 8901,
  "ĠDoesn": 31455,
  "ĠDog": 8563,
  "ĠDoing": 22008,
  "ĠDoll": 25678,
  "ĠDomin": 13976,
  "ĠDominic": 14036,
  "ĠDominican": 18978,
  "ĠDominion": 21694,
  "ĠDon": 1599,
  "ĠDonald": 807,
  "ĠDonation": 31671,
  "ĠDone": 21220,
  "ĠDonn": 21080,
  "ĠDonna": 14997,
  "ĠDoor": 21405,
  "ĠDot": 18449,
  "ĠDou": 11260,
  "ĠDouble": 12617,
  "ĠDoug": 6289,
  "ĠDouglas": 6139,
  "ĠDow": 4614,
  "ĠDown": 5818,
  "ĠDowning": 18123,
  "ĠDr": 925,
  "ĠDrag": 11588,
  "ĠDraw": 29109,
  "ĠDream": 7419,
  "ĠDrive": 3936,
  "ĠDro": 26513,
  "ĠDrop": 21603,
  "ĠDrugs": 21731,
  "ĠDrum": 18165,
  "ĠDub": 11558,
  "ĠDubai": 6798,
  "ĠDublin": 7378,
  "ĠDue": 11050,
  "ĠDuke": 5893,
  "ĠDul": 19829,
  "ĠDull": 38776,
  "ĠDur": 7925,
  "ĠDuring": 1590,
  "ĠDutch": 5979,
  "ĠDwight": 20392,
  "ĠE": 381,
  "ĠEC": 11270,
  "ĠED": 12714,
  "ĠEDT": 15320,
  "ĠEFF": 18625,
  "ĠELECT": 36630,
  "ĠEND": 34588,
  "ĠEPA": 6865,
  "ĠER": 13895,
  "ĠESC": 39394,
  "ĠET": 4799,
  "ĠEU": 1281,
  "ĠEVEN": 40416,
  "ĠEVERY": 32555,
  "ĠEX": 10649,
  "ĠEarl": 16814,
  "ĠEarth": 3875,
  "ĠEast": 953,
  "ĠEaster": 9274,
  "ĠEastern": 3877,
  "ĠEbola": 12977,
  "ĠEc": 19722,
  "ĠEcc": 29488,
  "ĠEck": 26975,
  "ĠEconomic": 4713,
  "ĠEconomist": 28053,
  "ĠEcuador": 18227,
  "ĠEd": 2344,
  "ĠEden": 14315,
  "ĠEdgar": 20630,
  "ĠEdison": 21670,
  "ĠEditing": 1772,
  "ĠEditor": 8627,
  "ĠEdmonton": 7672,
  "ĠEducation": 3061,
  "ĠEdward": 7393,
  "ĠEdwards": 7020,
  "ĠEff": 20029,
  "ĠEffect": 23816,
  "ĠEffective": 33355,
  "ĠEgypt": 5028,
  "ĠEgyptian": 10377,
  "ĠEgyptians": 34376,
  "ĠEight": 10099,
  "ĠEighth": 29906,
  "ĠEisenhower": 31037,
  "ĠEk": 9623,
  "ĠEl": 1448,
  "ĠElection": 7713,
  "ĠElections": 15445,
  "ĠElena": 24816,
  "ĠEleven": 22243,
  "ĠElijah": 22940,
  "ĠElim": 28175,
  "ĠElizabeth": 4690,
  "ĠElk": 25593,
  "ĠEllen": 12220,
  "ĠElliot": 20388,
  "ĠElliott": 7624,
  "ĠEllison": 21930,
  "ĠElm": 21595,
  "ĠEly": 21294,
  "ĠEm": 3676,
  "ĠEmail": 3593,
  "ĠEmails": 19029,
  "ĠEmanuel": 18312,
  "ĠEmb": 6133,
  "ĠEmbassy": 13357,
  "ĠEmer": 11746,
  "ĠEmergency": 6824,
  "ĠEmily": 7770,
  "ĠEmin": 41795,
  "ĠEmirates": 8313,
  "ĠEmmanuel": 8830,
  "ĠEmmy": 13731,
  "ĠEmperor": 31918,
  "ĠEmpire": 11492,
  "ĠEmpires": 47468,
  "ĠEmployment": 17820,
  "ĠEn": 2271,
  "ĠEnd": 4680,
  "ĠEnemy": 40603,
  "ĠEnergy": 2169,
  "ĠEnforcement": 10406,
  "ĠEngine": 20008,
  "ĠEngineering": 9466,
  "ĠEngland": 1156,
  "ĠEnglish": 2370,
  "ĠEnough": 28502,
  "ĠEntry": 23925,
  "ĠEnvironment": 9356,
  "ĠEp": 14230,
  "ĠEpic": 21523,
  "ĠEpiscopal": 25560,
  "ĠEpstein": 30633,
  "ĠEqu": 8510,
  "ĠEr": 4594,
  "ĠEra": 24636,
  "ĠErdogan": 8230,
  "ĠEric": 2954,
  "ĠErin": 13799,
  "ĠErnest": 16879,
  "ĠEs": 7065,
  "ĠEstablishment": 36894,
  "ĠEthics": 20138,
  "ĠEthiopia": 13934,
  "ĠEuph": 35027,
  "ĠEuras": 29700,
  "ĠEuro": 5122,
  "ĠEuropa": 11608,
  "ĠEurope": 1005,
  "ĠEuropean": 796,
  "ĠEuropeans": 19836,
  "ĠEuros": 24630,
  "ĠEvan": 9771,
  "ĠEvangel": 25567,
  "ĠEve": 6716,
  "ĠEven": 1648,
  "ĠEvening": 19620,
  "ĠEvery": 4337,
  "ĠEveryone": 7632,
  "ĠEverything": 9567,
  "ĠEvidence": 27956,
  "ĠEvil": 26780,
  "ĠEx": 3015,
  "ĠExaminer": 23556,
  "ĠExc": 22847,
  "ĠExcel": 27241,
  "ĠExcellence": 19092,
  "ĠExcellent": 34975,
  "ĠExec": 20297,
  "ĠExecutive": 2483,
  "ĠExercise": 30450,
  "ĠExp": 12806,
  "ĠExpansion": 32408,
  "ĠExpert": 26721,
  "ĠExplain": 44109,
  "ĠExplos": 35936,
  "ĠExplosive": 42837,
  "ĠExpress": 3619,
  "ĠExt": 19188,
  "ĠExtend": 45822,
  "ĠExtension": 22537,
  "ĠExtrem": 40313,
  "ĠEye": 14674,
  "ĠF": 274,
  "ĠFAA": 21419,
  "ĠFB": 13042,
  "ĠFBI": 2448,
  "ĠFC": 5429,
  "ĠFE": 16852,
  "ĠFIL": 28392,
  "ĠFIRST": 25746,
  "ĠFISA": 34137,
  "ĠFL": 8854,
  "ĠFOR": 5089,
  "ĠFOX": 7481,
  "ĠFR": 7136,
  "ĠFROM": 11974,
  "ĠFab": 8659,
  "ĠFabric": 33691,
  "ĠFac": 19127,
  "ĠFacebook": 622,
  "ĠFailed": 44216,
  "ĠFailure": 26443,
  "ĠFair": 3896,
  "ĠFaith": 14161,
  "ĠFake": 24530,
  "ĠFalcon": 16289,
  "ĠFall": 9197,
  "ĠFalse": 35297,
  "ĠFam": 18440,
  "ĠFamilies": 15669,
  "ĠFamily": 3664,
  "ĠFantastic": 29655,
  "ĠFar": 4256,
  "ĠFarage": 29393,
  "ĠFarrell": 16451,
  "ĠFashion": 9265,
  "ĠFast": 9612,
  "ĠFat": 11289,
  "ĠFather": 9510,
  "ĠFathers": 38710,
  "ĠFaul": 23051,
  "ĠFear": 18019,
  "ĠFeast": 37072,
  "ĠFeb": 1927,
  "ĠFebruary": 902,
  "ĠFederal": 1853,
  "ĠFederation": 6692,
  "ĠFeed": 17703,
  "ĠFein": 26338,
  "ĠFeinstein": 19760,
  "ĠFel": 9747,
  "ĠFeld": 35083,
  "ĠFemale": 23172,
  "ĠFerguson": 8889,
  "ĠFernando": 12615,
  "ĠFerr": 22826,
  "ĠFestival": 3502,
  "ĠFew": 13464,
  "ĠFidel": 30424,
  "ĠField": 4754,
  "ĠFifth": 12892,
  "ĠFifty": 22525,
  "ĠFight": 14381,
  "ĠFil": 13663,
  "ĠFile": 8655,
  "ĠFiles": 36928,
  "ĠFin": 6513,
  "ĠFinal": 6858,
  "ĠFinance": 4090,
  "ĠFind": 6449,
  "ĠFinding": 21470,
  "ĠFire": 1833,
  "ĠFirearms": 32576,
  "ĠFirst": 1234,
  "ĠFischer": 20942,
  "ĠFish": 9329,
  "ĠFisher": 6868,
  "ĠFit": 14950,
  "ĠFive": 4934,
  "ĠFl": 4150,
  "ĠFlag": 18238,
  "ĠFlake": 18510,
  "ĠFleet": 13727,
  "ĠFleming": 22273,
  "ĠFlood": 18376,
  "ĠFloor": 21607,
  "ĠFlor": 13219,
  "ĠFlorence": 9610,
  "ĠFlores": 17318,
  "ĠFlorida": 1261,
  "ĠFloyd": 13400,
  "ĠFlynn": 6969,
  "ĠFog": 26398,
  "ĠFol": 16479,
  "ĠFolk": 27518,
  "ĠFollow": 2184,
  "ĠFollowing": 3515,
  "ĠFood": 3652,
  "ĠFool": 10133,
  "ĠFoot": 13324,
  "ĠFor": 286,
  "ĠForbidden": 45076,
  "ĠForce": 3177,
  "ĠForced": 42659,
  "ĠForces": 8717,
  "ĠFord": 2493,
  "ĠFore": 6311,
  "ĠForeign": 3125,
  "ĠForest": 5761,
  "ĠForestry": 27613,
  "ĠForever": 25201,
  "ĠForget": 25449,
  "ĠFormer": 3531,
  "ĠFort": 3339,
  "ĠForum": 7665,
  "ĠForward": 10038,
  "ĠFoster": 8436,
  "ĠFound": 11911,
  "ĠFoundation": 2475,
  "ĠFourth": 11035,
  "ĠFox": 2063,
  "ĠFr": 4967,
  "ĠFranc": 17932,
  "ĠFrance": 1470,
  "ĠFrancis": 5075,
  "ĠFrancisco": 2659,
  "ĠFrank": 3848,
  "ĠFrankfurt": 14184,
  "ĠFranz": 30897,
  "ĠFraser": 11784,
  "ĠFreder": 19139,
  "ĠFree": 3130,
  "ĠFreedom": 7978,
  "ĠFreem": 44360,
  "ĠFreeman": 11460,
  "ĠFreeze": 36996,
  "ĠFrench": 1515,
  "ĠFresh": 9602,
  "ĠFri": 12860,
  "ĠFriday": 273,
  "ĠFriedman": 20895,
  "ĠFriend": 22733,
  "ĠFriends": 7837,
  "ĠFrom": 1740,
  "ĠFront": 7204,
  "ĠFull": 6583,
  "ĠFund": 2896,
  "ĠFurious": 30139,
  "ĠFusion": 20914,
  "ĠFuture": 7543,
  "ĠG": 272,
  "ĠGDP": 6250,
  "ĠGET": 7777,
  "ĠGO": 11932,
  "ĠGOD": 41827,
  "ĠGOP": 3932,
  "ĠGPS": 11921,
  "ĠGR": 8837,
  "ĠGREAT": 35622,
  "ĠGa": 10160,
  "ĠGab": 9341,
  "ĠGabriel": 8719,
  "ĠGael": 27835,
  "ĠGal": 4537,
  "ĠGalaxy": 5325,
  "ĠGall": 7155,
  "ĠGamb": 13333,
  "ĠGame": 2436,
  "ĠGan": 16929,
  "ĠGang": 13474,
  "ĠGarc": 27908,
  "ĠGarcia": 6603,
  "ĠGardner": 11309,
  "ĠGareth": 13600,
  "ĠGarr": 31042,
  "ĠGarry": 28333,
  "ĠGary": 4587,
  "ĠGas": 5664,
  "ĠGat": 12635,
  "ĠGate": 14552,
  "ĠGates": 10090,
  "ĠGateway": 20996,
  "ĠGathering": 36465,
  "ĠGay": 9480,
  "ĠGaza": 7914,
  "ĠGazette": 16865,
  "ĠGe": 4177,
  "ĠGem": 14435,
  "ĠGen": 4380,
  "ĠGeneral": 1292,
  "ĠGenesis": 24716,
  "ĠGeneva": 11559,
  "ĠGentle": 37196,
  "ĠGeoffrey": 24968,
  "ĠGeorg": 13413,
  "ĠGeorge": 1655,
  "ĠGeorgetown": 15226,
  "ĠGeorgia": 3090,
  "ĠGer": 7965,
  "ĠGerard": 19332,
  "ĠGerman": 1859,
  "ĠGermans": 18415,
  "ĠGermany": 1600,
  "ĠGet": 2315,
  "ĠGets": 32810,
  "ĠGhost": 19942,
  "ĠGi": 12422,
  "ĠGideon": 37975,
  "ĠGift": 23631,
  "ĠGil": 8205,
  "ĠGilbert": 13667,
  "ĠGill": 6452,
  "ĠGillespie": 25418,
  "ĠGilmore": 27927,
  "ĠGina": 18887,
  "ĠGingrich": 32700,
  "ĠGirls": 7707,
  "ĠGiuliani": 18334,
  "ĠGive": 12192,
  "ĠGl": 4573,
  "ĠGlad": 15151,
  "ĠGle": 19600,
  "ĠGlenn": 8583,
  "ĠGlobal": 1849,
  "ĠGlobe": 10249,
  "ĠGloria": 20753,
  "ĠGo": 2381,
  "ĠGoal": 17432,
  "ĠGod": 1840,
  "ĠGoing": 11733,
  "ĠGold": 2610,
  "ĠGoldman": 6765,
  "ĠGoldstein": 31856,
  "ĠGonz": 11862,
  "ĠGonzalez": 9670,
  "ĠGood": 2497,
  "ĠGoodbye": 40142,
  "ĠGoogle": 1204,
  "ĠGospel": 24292,
  "ĠGott": 24574,
  "ĠGov": 3483,
  "ĠGovernment": 1621,
  "ĠGovernments": 26581,
  "ĠGovernor": 3383,
  "ĠGow": 21400,
  "ĠGrac": 24140,
  "ĠGrace": 7569,
  "ĠGraham": 4572,
  "ĠGrand": 2374,
  "ĠGrande": 9803,
  "ĠGrant": 5980,
  "ĠGranted": 31561,
  "ĠGrants": 32635,
  "ĠGrass": 21211,
  "ĠGrassley": 21900,
  "ĠGreat": 2860,
  "ĠGreatest": 25854,
  "ĠGreek": 5617,
  "ĠGreen": 1628,
  "ĠGreene": 13900,
  "ĠGreenwald": 43356,
  "ĠGreg": 4275,
  "ĠGregory": 12006,
  "ĠGren": 13519,
  "ĠGrid": 22665,
  "ĠGrind": 26182,
  "ĠGro": 7461,
  "ĠGround": 13391,
  "ĠGroup": 826,
  "ĠGrove": 9851,
  "ĠGu": 2646,
  "ĠGuam": 18798,
  "ĠGuang": 21105,
  "ĠGuarant": 25503,
  "ĠGuard": 6137,
  "ĠGuardian": 8137,
  "ĠGuards": 26197,
  "ĠGuatem": 33651,
  "ĠGuatemala": 17088,
  "ĠGuide": 14670,
  "ĠGuild": 17813,
  "ĠGuinea": 14667,
  "ĠGuinness": 25574,
  "ĠGul": 12318,
  "ĠGulf": 4602,
  "ĠGun": 6409,
  "ĠGuns": 29735,
  "ĠGut": 21551,
  "ĠGuth": 27051,
  "ĠGuy": 6959,
  "ĠH": 289,
  "ĠHE": 12925,
  "ĠHERE": 9443,
  "ĠHIS": 37350,
  "ĠHM": 23770,
  "ĠHOL": 38364,
  "ĠHOW": 22062,
  "ĠHSBC": 12699,
  "ĠHTML": 23669,
  "ĠHUD": 29844,
  "ĠHUN": 35822,
  "ĠHa": 4936,
  "ĠHab": 16128,
  "ĠHad": 7301,
  "ĠHaf": 24256,
  "ĠHague": 24852,
  "ĠHaitian": 32935,
  "ĠHak": 23162,
  "ĠHal": 6579,
  "ĠHaley": 11443,
  "ĠHall": 1631,
  "ĠHam": 3600,
  "ĠHamas": 11547,
  "ĠHamilton": 4127,
  "ĠHammond": 13602,
  "ĠHampshire": 10372,
  "ĠHan": 6090,
  "ĠHancock": 19632,
  "ĠHandler": 41060,
  "ĠHandling": 40556,
  "ĠHannity": 24955,
  "ĠHapp": 15799,
  "ĠHar": 2482,
  "ĠHarbour": 16564,
  "ĠHard": 6206,
  "ĠHarding": 22793,
  "ĠHarm": 33619,
  "ĠHarrington": 25695,
  "ĠHarris": 3740,
  "ĠHarrison": 7287,
  "ĠHarvard": 8412,
  "ĠHarvest": 18413,
  "ĠHarvey": 4641,
  "ĠHas": 6233,
  "ĠHasan": 22935,
  "ĠHassan": 11551,
  "ĠHat": 10972,
  "ĠHatch": 19802,
  "ĠHate": 27032,
  "ĠHavana": 22312,
  "ĠHave": 6319,
  "ĠHaven": 12050,
  "ĠHay": 6280,
  "ĠHazard": 15031,
  "ĠHe": 91,
  "ĠHead": 3928,
  "ĠHealth": 1309,
  "ĠHear": 16321,
  "ĠHeart": 6924,
  "ĠHeath": 12424,
  "ĠHeather": 10588,
  "ĠHeaven": 19919,
  "ĠHeavy": 11927,
  "ĠHeb": 31958,
  "ĠHebrew": 27428,
  "ĠHedge": 18635,
  "ĠHegel": 47646,
  "ĠHeights": 9754,
  "ĠHein": 14370,
  "ĠHel": 6851,
  "ĠHelen": 11668,
  "ĠHelic": 31141,
  "ĠHell": 11141,
  "ĠHelp": 10310,
  "ĠHelsinki": 23253,
  "ĠHem": 10869,
  "ĠHemisphere": 34765,
  "ĠHen": 8001,
  "ĠHence": 18709,
  "ĠHenderson": 8400,
  "ĠHenry": 4858,
  "ĠHer": 1405,
  "ĠHerald": 8521,
  "ĠHerb": 25288,
  "ĠHerbert": 16532,
  "ĠHere": 1398,
  "ĠHernandez": 7816,
  "ĠHero": 15766,
  "ĠHerod": 45637,
  "ĠHers": 17346,
  "ĠHezbollah": 15235,
  "ĠHidden": 26234,
  "ĠHide": 27646,
  "ĠHiggins": 19422,
  "ĠHigh": 755,
  "ĠHighest": 36136,
  "ĠHighland": 16477,
  "ĠHil": 14909,
  "ĠHill": 1934,
  "ĠHillary": 5141,
  "ĠHills": 4962,
  "ĠHim": 14003,
  "ĠHimself": 43570,
  "ĠHindu": 12316,
  "ĠHis": 832,
  "ĠHispanic": 14362,
  "ĠHispanics": 33247,
  "ĠHistorical": 14549,
  "ĠHistory": 7298,
  "ĠHit": 15225,
  "ĠHitler": 16423,
  "ĠHits": 35865,
  "ĠHo": 5082,
  "ĠHof": 24889,
  "ĠHog": 28464,
  "ĠHogan": 12468,
  "ĠHol": 6217,
  "ĠHolder": 20198,
  "ĠHoliday": 10824,
  "ĠHolland": 10681,
  "ĠHollywood": 3049,
  "ĠHolocaust": 13903,
  "ĠHolt": 13155,
  "ĠHoly": 8427,
  "ĠHom": 11858,
  "ĠHome": 2193,
  "ĠHomeland": 9777,
  "ĠHomes": 13609,
  "ĠHond": 31200,
  "ĠHonduras": 18207,
  "ĠHonest": 39016,
  "ĠHoney": 13834,
  "ĠHong": 3523,
  "ĠHonor": 11403,
  "ĠHood": 14604,
  "ĠHoover": 18714,
  "ĠHope": 8012,
  "ĠHopkins": 11905,
  "ĠHor": 6746,
  "ĠHorizons": 34352,
  "ĠHorn": 10091,
  "ĠHorowitz": 32171,
  "ĠHosp": 13377,
  "ĠHospital": 2392,
  "ĠHotel": 5085,
  "ĠHouse": 446,
  "ĠHousehold": 30680,
  "ĠHouses": 27988,
  "ĠHousing": 8160,
  "ĠHouston": 2499,
  "ĠHouth": 14679,
  "ĠHover": 45857,
  "ĠHow": 1336,
  "ĠHoward": 5218,
  "ĠHowe": 22654,
  "ĠHowever": 635,
  "ĠHu": 8003,
  "ĠHubbard": 26297,
  "ĠHubble": 37006,
  "ĠHuckabee": 20950,
  "ĠHuffington": 27436,
  "ĠHugo": 18148,
  "ĠHum": 11669,
  "ĠHuma": 42981,
  "ĠHundred": 41184,
  "ĠHungarian": 18955,
  "ĠHungary": 11279,
  "ĠHunger": 27689,
  "ĠHunt": 7567,
  "ĠHunter": 7126,
  "ĠHurricane": 4370,
  "ĠHurricanes": 13697,
  "ĠHurt": 31797,
  "ĠHus": 9054,
  "ĠHussein": 20442,
  "ĠHy": 8851,
  "ĠI": 38,
  "ĠICE": 9964,
  "ĠID": 4576,
  "ĠIDF": 32621,
  "ĠIF": 17717,
  "ĠIG": 17374,
  "ĠII": 3082,
  "ĠIII": 6395,
  "ĠIM": 9206,
  "ĠIN": 2808,
  "ĠIND": 12569,
  "ĠINFORMATION": 20213,
  "ĠINV": 18638,
  "ĠIR": 11594,
  "ĠIRA": 21635,
  "ĠIRS": 12439,
  "ĠIS": 3703,
  "ĠISIS": 7550,
  "ĠIT": 3779,
  "ĠIV": 10831,
  "ĠIX": 23698,
  "ĠIan": 5965,
  "ĠIbn": 43609,
  "ĠId": 10367,
  "ĠIdea": 28795,
  "ĠIdentity": 30805,
  "ĠIf": 318,
  "ĠIgn": 18762,
  "ĠIgor": 29102,
  "ĠIk": 20270,
  "ĠIl": 8485,
  "ĠIll": 12285,
  "ĠIllegal": 36993,
  "ĠIllinois": 3882,
  "ĠIm": 5902,
  "ĠImages": 2209,
  "ĠImm": 14000,
  "ĠImmigration": 10294,
  "ĠImp": 17550,
  "ĠImperial": 16659,
  "ĠImran": 14274,
  "ĠIn": 96,
  "ĠInc": 603,
  "ĠIncarnation": 48616,
  "ĠIncident": 35201,
  "ĠIncluding": 12526,
  "ĠIncrease": 30899,
  "ĠInd": 4619,
  "ĠIndependence": 12401,
  "ĠIndependent": 6911,
  "ĠIndex": 4648,
  "ĠIndia": 666,
  "ĠIndian": 1362,
  "ĠIndiana": 4552,
  "ĠIndians": 6739,
  "ĠIndones": 42403,
  "ĠIndonesia": 5722,
  "ĠIndonesian": 12852,
  "ĠIndustrial": 6741,
  "ĠInf": 7412,
  "ĠInflu": 31347,
  "ĠInfluence": 41284,
  "ĠInform": 33929,
  "ĠInformation": 3522,
  "ĠIng": 11996,
  "ĠInitiative": 11980,
  "ĠInnocent": 40797,
  "ĠIns": 6326,
  "ĠInside": 10277,
  "ĠInspector": 12412,
  "ĠInstagram": 1838,
  "ĠInstead": 2978,
  "ĠInstit": 22951,
  "ĠInstitute": 2534,
  "ĠInstitution": 22082,
  "ĠInstruct": 45769,
  "ĠInstruction": 41241,
  "ĠInstructions": 22708,
  "ĠInstrument": 28559,
  "ĠInt": 7299,
  "ĠIntegration": 33219,
  "ĠIntel": 6869,
  "ĠIntelligence": 6558,
  "ĠIntercept": 35141,
  "ĠInterior": 8867,
  "ĠInternational": 1016,
  "ĠInternet": 3742,
  "ĠInterpret": 43380,
  "ĠInterstate": 11100,
  "ĠInto": 20693,
  "ĠInv": 9318,
  "ĠInvaders": 47103,
  "ĠInvasion": 42749,
  "ĠInvest": 12814,
  "ĠInvestigation": 10804,
  "ĠInvestigations": 22334,
  "ĠInvestigative": 28956,
  "ĠInvestigators": 7847,
  "ĠInvestment": 2830,
  "ĠIran": 1603,
  "ĠIranian": 5051,
  "ĠIranians": 23571,
  "ĠIraq": 3345,
  "ĠIraqi": 7780,
  "ĠIraqis": 33817,
  "ĠIreland": 2487,
  "ĠIris": 31975,
  "ĠIrish": 3445,
  "ĠIrma": 8547,
  "ĠIrving": 11241,
  "ĠIs": 1534,
  "ĠIsaac": 12370,
  "ĠIsaiah": 16473,
  "ĠIslam": 7503,
  "ĠIslamic": 2715,
  "ĠIslamist": 9954,
  "ĠIslamists": 26729,
  "ĠIsland": 2376,
  "ĠIslands": 8594,
  "ĠIsle": 18930,
  "ĠIsn": 26421,
  "ĠIsrael": 1870,
  "ĠIsraeli": 3465,
  "ĠIt": 85,
  "ĠItalian": 3108,
  "ĠItaly": 2627,
  "ĠIts": 3139,
  "ĠIvanka": 12739,
  "ĠJ": 344,
  "ĠJFK": 29889,
  "ĠJUSTICE": 46204,
  "ĠJab": 18788,
  "ĠJace": 38699,
  "ĠJack": 2722,
  "ĠJackie": 12585,
  "ĠJacob": 5747,
  "ĠJail": 10509,
  "ĠJakarta": 16680,
  "ĠJake": 6469,
  "ĠJamal": 15327,
  "ĠJames": 957,
  "ĠJamie": 6541,
  "ĠJan": 1133,
  "ĠJaneiro": 20698,
  "ĠJanuary": 644,
  "ĠJapan": 1429,
  "ĠJapanese": 2898,
  "ĠJared": 8790,
  "ĠJarrett": 23393,
  "ĠJason": 3262,
  "ĠJavier": 20550,
  "ĠJay": 3309,
  "ĠJazeera": 32427,
  "ĠJean": 5363,
  "ĠJeb": 26315,
  "ĠJeff": 2321,
  "ĠJefferson": 9033,
  "ĠJeffrey": 9011,
  "ĠJenn": 23710,
  "ĠJer": 12484,
  "ĠJeremiah": 27552,
  "ĠJeremy": 5653,
  "ĠJerome": 15385,
  "ĠJerry": 6509,
  "ĠJersey": 3123,
  "ĠJerusalem": 7007,
  "ĠJess": 15742,
  "ĠJesse": 10716,
  "ĠJessica": 7103,
  "ĠJessie": 24520,
  "ĠJesuit": 34466,
  "ĠJesus": 5772,
  "ĠJet": 12551,
  "ĠJew": 16495,
  "ĠJewish": 4586,
  "ĠJews": 8609,
  "ĠJihad": 35342,
  "ĠJim": 2488,
  "ĠJinn": 39728,
  "ĠJinping": 12883,
  "ĠJo": 3889,
  "ĠJobs": 13499,
  "ĠJoe": 2101,
  "ĠJoel": 8966,
  "ĠJohannes": 14367,
  "ĠJohn": 610,
  "ĠJohnny": 8781,
  "ĠJohns": 16053,
  "ĠJohnson": 1436,
  "ĠJoin": 10287,
  "ĠJoint": 9490,
  "ĠJon": 4160,
  "ĠJonathan": 4167,
  "ĠJones": 1454,
  "ĠJong": 6465,
  "ĠJordan": 2875,
  "ĠJorge": 15580,
  "ĠJose": 3071,
  "ĠJoseph": 3351,
  "ĠJosh": 3533,
  "ĠJoshua": 7848,
  "ĠJournal": 3642,
  "ĠJoy": 11351,
  "ĠJr": 2385,
  "ĠJuan": 7056,
  "ĠJud": 19691,
  "ĠJudah": 42212,
  "ĠJudaism": 34345,
  "ĠJude": 20099,
  "ĠJudge": 3052,
  "ĠJudicial": 20502,
  "ĠJudiciary": 11719,
  "ĠJudith": 27479,
  "ĠJul": 9654,
  "ĠJulian": 10148,
  "ĠJulie": 9786,
  "ĠJulio": 23262,
  "ĠJuly": 550,
  "ĠJun": 6752,
  "ĠJune": 502,
  "ĠJupiter": 21217,
  "ĠJust": 1801,
  "ĠJustice": 1659,
  "ĠJustin": 3289,
  "ĠK": 229,
  "ĠKE": 37112,
  "ĠKKK": 34829,
  "ĠKN": 30105,
  "ĠKR": 20858,
  "ĠKad": 10912,
  "ĠKal": 5507,
  "ĠKam": 5911,
  "ĠKamp": 22194,
  "ĠKang": 14796,
  "ĠKansas": 3110,
  "ĠKar": 4077,
  "ĠKara": 20558,
  "ĠKaren": 7836,
  "ĠKarl": 8328,
  "ĠKas": 10124,
  "ĠKasich": 26004,
  "ĠKass": 27154,
  "ĠKat": 9075,
  "ĠKate": 5105,
  "ĠKath": 15359,
  "ĠKatherine": 16786,
  "ĠKatz": 22183,
  "ĠKavanaugh": 5164,
  "ĠKaz": 15006,
  "ĠKazakh": 34353,
  "ĠKazakhstan": 17983,
  "ĠKe": 3350,
  "ĠKeane": 26887,
  "ĠKeep": 7238,
  "ĠKeith": 6810,
  "ĠKell": 12702,
  "ĠKelly": 2826,
  "ĠKemp": 16030,
  "ĠKen": 3410,
  "ĠKenn": 19082,
  "ĠKennedy": 5076,
  "ĠKent": 7890,
  "ĠKentucky": 4449,
  "ĠKenya": 6241,
  "ĠKerry": 9153,
  "ĠKevin": 2363,
  "ĠKh": 2218,
  "ĠKhal": 14373,
  "ĠKhalid": 20133,
  "ĠKhan": 3338,
  "ĠKick": 16832,
  "ĠKilled": 36143,
  "ĠKiller": 27249,
  "ĠKilling": 31656,
  "ĠKills": 44117,
  "ĠKim": 1636,
  "ĠKind": 17161,
  "ĠKinder": 18091,
  "ĠKing": 1745,
  "ĠKingdom": 5752,
  "ĠKings": 5414,
  "ĠKingston": 16547,
  "ĠKirk": 7686,
  "ĠKirst": 16071,
  "ĠKislyak": 31027,
  "ĠKl": 7507,
  "ĠKlan": 27590,
  "ĠKlaus": 29134,
  "ĠKlein": 13730,
  "ĠKlux": 33373,
  "ĠKnown": 21575,
  "ĠKnox": 12996,
  "ĠKob": 18131,
  "ĠKoen": 32286,
  "ĠKong": 3532,
  "ĠKor": 13451,
  "ĠKoran": 42244,
  "ĠKorea": 1101,
  "ĠKorean": 2238,
  "ĠKoreans": 16818,
  "ĠKr": 10991,
  "ĠKramer": 24957,
  "ĠKremlin": 9812,
  "ĠKris": 11233,
  "ĠKrist": 8051,
  "ĠKu": 9609,
  "ĠKumar": 6706,
  "ĠKurdish": 9225,
  "ĠKurdistan": 22953,
  "ĠKurds": 20673,
  "ĠKushner": 10552,
  "ĠKut": 29228,
  "ĠKyle": 4831,
  "ĠKyr": 17439,
  "ĠL": 226,
  "ĠLA": 5168,
  "ĠLAT": 21455,
  "ĠLB": 15456,
  "ĠLE": 10611,
  "ĠLGBT": 10194,
  "ĠLGBTQ": 12068,
  "ĠLLC": 2291,
  "ĠLONG": 34128,
  "ĠLORD": 45660,
  "ĠLa": 1587,
  "ĠLab": 8250,
  "ĠLabor": 6338,
  "ĠLaboratory": 17815,
  "ĠLabour": 4165,
  "ĠLaden": 24875,
  "ĠLady": 4645,
  "ĠLake": 1777,
  "ĠLamar": 13108,
  "ĠLamb": 13132,
  "ĠLambert": 17489,
  "ĠLana": 29619,
  "ĠLancaster": 15038,
  "ĠLand": 3192,
  "ĠLang": 7883,
  "ĠLanka": 8500,
  "ĠLaos": 33516,
  "ĠLarge": 13769,
  "ĠLas": 2588,
  "ĠLast": 1426,
  "ĠLat": 9882,
  "ĠLate": 10130,
  "ĠLater": 6811,
  "ĠLatest": 9385,
  "ĠLatin": 5862,
  "ĠLatino": 15413,
  "ĠLatinos": 28514,
  "ĠLatvia": 27749,
  "ĠLaun": 21208,
  "ĠLaura": 6939,
  "ĠLaurel": 22729,
  "ĠLauren": 8553,
  "ĠLavrov": 19977,
  "ĠLaw": 2589,
  "ĠLawn": 23970,
  "ĠLawrence": 6226,
  "ĠLaws": 30070,
  "ĠLawson": 16074,
  "ĠLawyers": 17090,
  "ĠLe": 1063,
  "ĠLeader": 5337,
  "ĠLeaders": 16029,
  "ĠLeading": 15530,
  "ĠLeague": 815,
  "ĠLeah": 16184,
  "ĠLeave": 15084,
  "ĠLeaving": 28931,
  "ĠLebanon": 8398,
  "ĠLee": 2094,
  "ĠLeeds": 9245,
  "ĠLeft": 10039,
  "ĠLeg": 15376,
  "ĠLegacy": 18089,
  "ĠLegal": 10661,
  "ĠLegends": 24322,
  "ĠLegisl": 32717,
  "ĠLegislative": 19845,
  "ĠLegislature": 9082,
  "ĠLemon": 22059,
  "ĠLen": 12053,
  "ĠLenin": 37632,
  "ĠLennon": 23563,
  "ĠLens": 32926,
  "ĠLeo": 12520,
  "ĠLeone": 16910,
  "ĠLeslie": 12504,
  "ĠLet": 2780,
  "ĠLetter": 17103,
  "ĠLetters": 23937,
  "ĠLew": 11218,
  "ĠLewis": 3577,
  "ĠLib": 11135,
  "ĠLiber": 16129,
  "ĠLiberal": 7612,
  "ĠLiberia": 16558,
  "ĠLiberties": 23362,
  "ĠLiberty": 7616,
  "ĠLibrary": 5672,
  "ĠLibya": 7662,
  "ĠLibyan": 18087,
  "ĠLie": 17974,
  "ĠLies": 24531,
  "ĠLif": 19556,
  "ĠLife": 3126,
  "ĠLights": 19968,
  "ĠLike": 2011,
  "ĠLikely": 37259,
  "ĠLil": 14378,
  "ĠLim": 8300,
  "ĠLima": 18471,
  "ĠLimbaugh": 42587,
  "ĠLin": 9252,
  "ĠLincoln": 5839,
  "ĠLind": 7596,
  "ĠLindsey": 12149,
  "ĠLink": 4341,
  "ĠLinkedIn": 6582,
  "ĠLisa": 5769,
  "ĠListen": 13041,
  "ĠLit": 17124,
  "ĠLiterally": 39684,
  "ĠLittle": 4046,
  "ĠLiv": 17057,
  "ĠLive": 3561,
  "ĠLives": 13409,
  "ĠLiving": 10427,
  "ĠLo": 5463,
  "ĠLobby": 35434,
  "ĠLocal": 4004,
  "ĠLock": 11647,
  "ĠLog": 9359,
  "ĠLomb": 15944,
  "ĠLon": 16461,
  "ĠLondon": 928,
  "ĠLong": 2597,
  "ĠLook": 6893,
  "ĠLopez": 7322,
  "ĠLord": 5736,
  "ĠLords": 26608,
  "ĠLore": 17004,
  "ĠLos": 1287,
  "ĠLose": 38551,
  "ĠLost": 13932,
  "ĠLot": 11973,
  "ĠLouie": 34488,
  "ĠLouis": 3217,
  "ĠLouise": 12886,
  "ĠLouisiana": 5993,
  "ĠLove": 3437,
  "ĠLu": 5078,
  "ĠLub": 25500,
  "ĠLucas": 7895,
  "ĠLucia": 22959,
  "ĠLucy": 14309,
  "ĠLudwig": 32861,
  "ĠLuigi": 36848,
  "ĠLuk": 10920,
  "ĠLuke": 5790,
  "ĠLum": 21307,
  "ĠLuther": 11396,
  "ĠLutheran": 19158,
  "ĠLyn": 14122,
  "ĠLynch": 7052,
  "ĠLyndon": 36070,
  "ĠLynn": 9840,
  "ĠM": 256,
  "ĠMAG": 29505,
  "ĠMAY": 19105,
  "ĠMB": 17025,
  "ĠME": 12341,
  "ĠMED": 22718,
  "ĠMEM": 27176,
  "ĠMEP": 29442,
  "ĠMER": 35055,
  "ĠMGM": 20405,
  "ĠMI": 10931,
  "ĠMID": 31465,
  "ĠMJ": 33936,
  "ĠMN": 18138,
  "ĠMOR": 26719,
  "ĠMORE": 3001,
  "ĠMP": 3957,
  "ĠMPs": 6714,
  "ĠMS": 6253,
  "ĠMSNBC": 20054,
  "ĠMU": 24099,
  "ĠMUCH": 42778,
  "ĠMUST": 39282,
  "ĠMY": 20060,
  "ĠMa": 3066,
  "ĠMac": 1775,
  "ĠMack": 6309,
  "ĠMacron": 6118,
  "ĠMad": 4145,
  "ĠMadagascar": 33545,
  "ĠMadd": 12188,
  "ĠMade": 10630,
  "ĠMadison": 6370,
  "ĠMafia": 37516,
  "ĠMag": 3771,
  "ĠMagazine": 10202,
  "ĠMaher": 23155,
  "ĠMaiden": 34404,
  "ĠMail": 6313,
  "ĠMain": 4326,
  "ĠMaine": 6488,
  "ĠMaj": 9894,
  "ĠMajesty": 29705,
  "ĠMajor": 5454,
  "ĠMajority": 11982,
  "ĠMake": 5293,
  "ĠMakes": 25379,
  "ĠMaking": 11102,
  "ĠMal": 2529,
  "ĠMalaysian": 11833,
  "ĠMalcolm": 11805,
  "ĠMald": 17727,
  "ĠMalik": 13502,
  "ĠMalk": 28037,
  "ĠMalta": 15977,
  "ĠMama": 25742,
  "ĠMan": 1554,
  "ĠManafort": 8496,
  "ĠManagement": 1753,
  "ĠManchester": 2361,
  "ĠMandal": 25990,
  "ĠMang": 12756,
  "ĠManhattan": 6562,
  "ĠManit": 34406,
  "ĠMankind": 46648,
  "ĠManning": 9967,
  "ĠManuel": 11294,
  "ĠMany": 1876,
  "ĠMap": 18247,
  "ĠMaps": 21089,
  "ĠMar": 1127,
  "ĠMara": 25909,
  "ĠMarc": 5908,
  "ĠMarch": 494,
  "ĠMarco": 10425,
  "ĠMarg": 7572,
  "ĠMargaret": 10488,
  "ĠMari": 19702,
  "ĠMaria": 5011,
  "ĠMarian": 19035,
  "ĠMarie": 9340,
  "ĠMarine": 6144,
  "ĠMarines": 19368,
  "ĠMario": 8782,
  "ĠMark": 1190,
  "ĠMarketing": 9020,
  "ĠMarks": 19793,
  "ĠMarkus": 29209,
  "ĠMarriage": 29795,
  "ĠMarried": 30918,
  "ĠMars": 6507,
  "ĠMart": 5465,
  "ĠMartin": 1896,
  "ĠMartinez": 7190,
  "ĠMarx": 28029,
  "ĠMarxism": 44760,
  "ĠMarxist": 37949,
  "ĠMary": 2708,
  "ĠMaryland": 4788,
  "ĠMason": 7332,
  "ĠMasonic": 39306,
  "ĠMass": 5370,
  "ĠMassacre": 40495,
  "ĠMassive": 33859,
  "ĠMaster": 6935,
  "ĠMatrix": 29830,
  "ĠMats": 20831,
  "ĠMatt": 2150,
  "ĠMatte": 21129,
  "ĠMatter": 18181,
  "ĠMatters": 26588,
  "ĠMatthew": 4508,
  "ĠMattis": 10860,
  "ĠMau": 14147,
  "ĠMaur": 12381,
  "ĠMaurit": 26214,
  "ĠMaver": 28920,
  "ĠMax": 4471,
  "ĠMay": 392,
  "ĠMaybe": 5359,
  "ĠMayor": 3129,
  "ĠMayweather": 14626,
  "ĠMaz": 15775,
  "ĠMc": 1509,
  "ĠMcC": 3409,
  "ĠMcCabe": 16848,
  "ĠMcCain": 6973,
  "ĠMcCarthy": 9469,
  "ĠMcCl": 11628,
  "ĠMcConnell": 8282,
  "ĠMcCorm": 18945,
  "ĠMcDonnell": 26894,
  "ĠMcF": 22361,
  "ĠMcG": 7108,
  "ĠMcGill": 25168,
  "ĠMcMaster": 18113,
  "ĠMcN": 11090,
  "ĠMe": 1464,
  "ĠMeadows": 16438,
  "ĠMeans": 27088,
  "ĠMeanwhile": 2276,
  "ĠMecca": 36290,
  "ĠMedal": 17823,
  "ĠMedia": 2454,
  "ĠMedicaid": 7426,
  "ĠMedical": 3067,
  "ĠMedicine": 8029,
  "ĠMedium": 22684,
  "ĠMeet": 11869,
  "ĠMeeting": 12776,
  "ĠMel": 4448,
  "ĠMelania": 12305,
  "ĠMelbourne": 5703,
  "ĠMelvin": 20672,
  "ĠMem": 20207,
  "ĠMember": 10153,
  "ĠMembers": 7845,
  "ĠMen": 4011,
  "ĠMens": 20730,
  "ĠMer": 4213,
  "ĠMercer": 20563,
  "ĠMercy": 19669,
  "ĠMerkel": 6580,
  "ĠMesa": 16850,
  "ĠMesh": 41440,
  "ĠMess": 15212,
  "ĠMessage": 32236,
  "ĠMet": 4369,
  "ĠMethodist": 15094,
  "ĠMetro": 5768,
  "ĠMetropolitan": 10718,
  "ĠMexican": 4938,
  "ĠMexico": 1625,
  "ĠMiami": 2561,
  "ĠMic": 8900,
  "ĠMichael": 988,
  "ĠMichel": 11026,
  "ĠMichelle": 6145,
  "ĠMichigan": 2293,
  "ĠMid": 4079,
  "ĠMiddle": 2367,
  "ĠMik": 12355,
  "ĠMike": 1483,
  "ĠMil": 5366,
  "ĠMilan": 7338,
  "ĠMilitary": 10005,
  "ĠMilky": 36713,
  "ĠMill": 5388,
  "ĠMiller": 2947,
  "ĠMillion": 8399,
  "ĠMillions": 19079,
  "ĠMin": 3635,
  "ĠMind": 9201,
  "ĠMinimum": 32600,
  "ĠMinister": 692,
  "ĠMinistry": 2803,
  "ĠMinneapolis": 11435,
  "ĠMinnesota": 3161,
  "ĠMinor": 21315,
  "ĠMinority": 15539,
  "ĠMint": 20128,
  "ĠMinutes": 18925,
  "ĠMir": 6512,
  "ĠMis": 12830,
  "ĠMisc": 40135,
  "ĠMish": 22975,
  "ĠMiss": 4523,
  "ĠMissile": 34169,
  "ĠMissing": 23632,
  "ĠMission": 7750,
  "ĠMissouri": 4630,
  "ĠMitch": 8703,
  "ĠMitchell": 5275,
  "ĠMitt": 16272,
  "ĠMixed": 28905,
  "ĠMo": 3713,
  "ĠMod": 10274,
  "ĠModern": 13021,
  "ĠModi": 4698,
  "ĠMoh": 8097,
  "ĠMohammad": 11552,
  "ĠMohammed": 6963,
  "ĠMol": 10347,
  "ĠMom": 10631,
  "ĠMon": 3385,
  "ĠMonday": 302,
  "ĠMoney": 8028,
  "ĠMonica": 12811,
  "ĠMonitor": 23328,
  "ĠMons": 27063,
  "ĠMont": 4436,
  "ĠMontana": 8920,
  "ĠMontgomery": 8570,
  "ĠMontreal": 5817,
  "ĠMoon": 5648,
  "ĠMoore": 3404,
  "ĠMor": 4266,
  "ĠMoral": 42822,
  "ĠMore": 901,
  "ĠMoreno": 20591,
  "ĠMorgan": 3040,
  "ĠMorning": 5843,
  "ĠMorph": 44550,
  "ĠMorris": 6227,
  "ĠMort": 17457,
  "ĠMorton": 18967,
  "ĠMos": 8033,
  "ĠMoscow": 3467,
  "ĠMoses": 16590,
  "ĠMosque": 31422,
  "ĠMoss": 12496,
  "ĠMost": 1993,
  "ĠMosul": 13330,
  "ĠMot": 6434,
  "ĠMother": 8133,
  "ĠMou": 26805,
  "ĠMount": 5455,
  "ĠMountain": 4743,
  "ĠMoving": 15008,
  "ĠMoy": 11749,
  "ĠMr": 427,
  "ĠMrs": 3801,
  "ĠMs": 2135,
  "ĠMu": 6186,
  "ĠMueller": 4335,
  "ĠMug": 7148,
  "ĠMuhammad": 6728,
  "ĠMull": 10605,
  "ĠMuller": 28858,
  "ĠMult": 14910,
  "ĠMultiple": 16210,
  "ĠMun": 6760,
  "ĠMunich": 10489,
  "ĠMur": 7273,
  "ĠMurd": 28109,
  "ĠMurphy": 5682,
  "ĠMurray": 4479,
  "ĠMus": 5950,
  "ĠMusic": 3920,
  "ĠMuslim": 3346,
  "ĠMuslims": 6299,
  "ĠMust": 8495,
  "ĠMy": 1308,
  "ĠMyanmar": 7095,
  "ĠMyers": 11366,
  "ĠMyst": 41375,
  "ĠMyster": 43888,
  "ĠMysterious": 45635,
  "ĠMystery": 34039,
  "ĠN": 234,
  "ĠNAFTA": 13783,
  "ĠNASA": 6109,
  "ĠNAT": 36233,
  "ĠNATO": 6169,
  "ĠNB": 28868,
  "ĠNBC": 3890,
  "ĠNEVER": 37603,
  "ĠNEW": 5178,
  "ĠNEWS": 7857,
  "ĠNGO": 21892,
  "ĠNGOs": 22986,
  "ĠNI": 17378,
  "ĠNM": 31736,
  "ĠNO": 8228,
  "ĠNOAA": 28260,
  "ĠNOT": 8127,
  "ĠNOW": 14279,
  "ĠNRA": 15090,
  "ĠNSA": 19711,
  "ĠNad": 7157,
  "ĠNak": 13806,
  "ĠName": 10704,
  "ĠNamed": 30436,
  "ĠNancy": 8239,
  "ĠNapoleon": 35767,
  "ĠNar": 10735,
  "ĠNarendra": 9975,
  "ĠNarr": 36455,
  "ĠNat": 10037,
  "ĠNate": 13320,
  "ĠNathaniel": 29299,
  "ĠNation": 5857,
  "ĠNational": 496,
  "ĠNations": 3076,
  "ĠNative": 10442,
  "ĠNato": 34674,
  "ĠNatural": 7278,
  "ĠNature": 10053,
  "ĠNau": 30661,
  "ĠNav": 8236,
  "ĠNaval": 13725,
  "ĠNavy": 5027,
  "ĠNaz": 14618,
  "ĠNazi": 12281,
  "ĠNazis": 20751,
  "ĠNe": 3864,
  "ĠNear": 15729,
  "ĠNearly": 9221,
  "ĠNeb": 23197,
  "ĠNebula": 44846,
  "ĠNeed": 10145,
  "ĠNeg": 13912,
  "ĠNeither": 9081,
  "ĠNelson": 5045,
  "ĠNeo": 31176,
  "ĠNept": 47799,
  "ĠNeptune": 35072,
  "ĠNet": 5008,
  "ĠNetanyahu": 8580,
  "ĠNetflix": 3909,
  "ĠNetherlands": 7556,
  "ĠNetwork": 3658,
  "ĠNevada": 5077,
  "ĠNever": 9154,
  "ĠNeville": 21344,
  "ĠNew": 188,
  "ĠNewark": 17392,
  "ĠNewly": 30726,
  "ĠNews": 491,
  "ĠNewsp": 32495,
  "ĠNewspaper": 26750,
  "ĠNewt": 36997,
  "ĠNex": 21917,
  "ĠNext": 4130,
  "ĠNi": 11568,
  "ĠNic": 13608,
  "ĠNicholas": 10730,
  "ĠNick": 2651,
  "ĠNielsen": 14510,
  "ĠNigel": 16734,
  "ĠNiger": 5572,
  "ĠNigeria": 2000,
  "ĠNight": 4172,
  "ĠNik": 6575,
  "ĠNikki": 15141,
  "ĠNixon": 12481,
  "ĠNo": 440,
  "ĠNoah": 10629,
  "ĠNobel": 12821,
  "ĠNom": 11276,
  "ĠNon": 6965,
  "ĠNoon": 17125,
  "ĠNope": 37712,
  "ĠNor": 6567,
  "ĠNorm": 20336,
  "ĠNort": 17614,
  "ĠNorth": 369,
  "ĠNorthern": 2874,
  "ĠNorway": 8683,
  "ĠNost": 39233,
  "ĠNot": 1491,
  "ĠNote": 6068,
  "ĠNothing": 10385,
  "ĠNotice": 22873,
  "ĠNottingham": 17142,
  "ĠNov": 1442,
  "ĠNovember": 759,
  "ĠNow": 978,
  "ĠNu": 12907,
  "ĠNuclear": 16909,
  "ĠNumbers": 31415,
  "ĠNun": 19531,
  "ĠO": 384,
  "ĠOB": 28214,
  "ĠOF": 3243,
  "ĠOFFIC": 38872,
  "ĠOH": 18895,
  "ĠOK": 4954,
  "ĠON": 5121,
  "ĠONE": 19551,
  "ĠOR": 6532,
  "ĠOS": 8192,
  "ĠOak": 6482,
  "ĠOakland": 5147,
  "ĠOb": 5816,
  "ĠObama": 1284,
  "ĠObs": 23798,
  "ĠObserver": 15815,
  "ĠObviously": 11105,
  "ĠOcean": 5860,
  "ĠOct": 1700,
  "ĠOctober": 779,
  "ĠOdin": 42683,
  "ĠOf": 1525,
  "ĠOff": 4995,
  "ĠOffer": 24027,
  "ĠOffice": 1387,
  "ĠOfficer": 2817,
  "ĠOfficers": 6359,
  "ĠOfficial": 13485,
  "ĠOfficials": 5002,
  "ĠOh": 5534,
  "ĠOhio": 2042,
  "ĠOkay": 8487,
  "ĠOkinawa": 36265,
  "ĠOl": 5387,
  "ĠOld": 3470,
  "ĠOlive": 17925,
  "ĠOliver": 7730,
  "ĠOman": 18302,
  "ĠOmar": 11482,
  "ĠOn": 374,
  "ĠOne": 509,
  "ĠOnline": 5855,
  "ĠOnly": 4041,
  "ĠOnt": 13302,
  "ĠOpen": 2117,
  "ĠOperation": 13346,
  "ĠOperations": 10919,
  "ĠOpp": 11053,
  "ĠOr": 1793,
  "ĠOrange": 5726,
  "ĠOrb": 32970,
  "ĠOrche": 44544,
  "ĠOrd": 16702,
  "ĠOrder": 9729,
  "ĠOrders": 32335,
  "ĠOregon": 4316,
  "ĠOrganisation": 13158,
  "ĠOrganization": 6481,
  "ĠOriginal": 15973,
  "ĠOrleans": 4942,
  "ĠOs": 4838,
  "ĠOsborne": 17093,
  "ĠOslo": 26067,
  "ĠOswald": 35032,
  "ĠOt": 10233,
  "ĠOther": 1944,
  "ĠOtherwise": 17592,
  "ĠOtt": 25215,
  "ĠOur": 1541,
  "ĠOut": 2548,
  "ĠOutbreak": 47343,
  "ĠOval": 12077,
  "ĠOver": 2306,
  "ĠOversight": 28230,
  "ĠOwners": 17389,
  "ĠOxford": 9238,
  "ĠP": 221,
  "ĠPART": 19713,
  "ĠPD": 11707,
  "ĠPDF": 22745,
  "ĠPE": 12238,
  "ĠPER": 18578,
  "ĠPET": 21817,
  "ĠPJ": 28529,
  "ĠPKK": 31968,
  "ĠPL": 12901,
  "ĠPM": 2784,
  "ĠPOL": 22808,
  "ĠPOLITICO": 41225,
  "ĠPR": 4729,
  "ĠPRE": 13091,
  "ĠPRESS": 22980,
  "ĠPTSD": 24679,
  "ĠPablo": 16500,
  "ĠPacific": 3073,
  "ĠPad": 9003,
  "ĠPaddock": 17763,
  "ĠPage": 7086,
  "ĠPages": 32502,
  "ĠPaid": 37493,
  "ĠPakistan": 1752,
  "ĠPakistani": 9246,
  "ĠPalestine": 16398,
  "ĠPalestinian": 5791,
  "ĠPalestinians": 8345,
  "ĠPalm": 7929,
  "ĠPam": 18155,
  "ĠPamela": 22998,
  "ĠPan": 5302,
  "ĠPanama": 12276,
  "ĠPap": 11846,
  "ĠPar": 2884,
  "ĠParent": 7783,
  "ĠParents": 13791,
  "ĠParis": 2201,
  "ĠPark": 861,
  "ĠParker": 6224,
  "ĠParliament": 3879,
  "ĠParliamentary": 21879,
  "ĠParty": 1643,
  "ĠPass": 7124,
  "ĠPast": 11182,
  "ĠPat": 3769,
  "ĠPatel": 12717,
  "ĠPatients": 21755,
  "ĠPatreon": 44452,
  "ĠPatricia": 12372,
  "ĠPatrick": 3499,
  "ĠPatriot": 22152,
  "ĠPatriots": 4314,
  "ĠPatrol": 7795,
  "ĠPatt": 15414,
  "ĠPatterson": 11340,
  "ĠPaul": 1206,
  "ĠPaula": 18223,
  "ĠPaw": 15822,
  "ĠPay": 6898,
  "ĠPe": 4119,
  "ĠPeace": 7774,
  "ĠPegasus": 40257,
  "ĠPel": 11787,
  "ĠPell": 29755,
  "ĠPelosi": 9560,
  "ĠPen": 4676,
  "ĠPenalty": 41479,
  "ĠPennsylvania": 4367,
  "ĠPent": 17257,
  "ĠPentagon": 8058,
  "ĠPeople": 1806,
  "ĠPer": 2595,
  "ĠPerez": 8858,
  "ĠPerhaps": 6259,
  "ĠPerkins": 16615,
  "ĠPermanent": 20132,
  "ĠPerry": 6220,
  "ĠPerse": 42447,
  "ĠPersian": 27775,
  "ĠPersonally": 30308,
  "ĠPeru": 12132,
  "ĠPet": 5106,
  "ĠPeter": 2155,
  "ĠPeters": 11975,
  "ĠPett": 22327,
  "ĠPh": 4129,
  "ĠPhar": 44286,
  "ĠPharaoh": 43901,
  "ĠPhil": 4720,
  "ĠPhiladelphia": 3378,
  "ĠPhilipp": 25955,
  "ĠPhilippines": 5639,
  "ĠPhoenix": 5524,
  "ĠPhone": 12091,
  "ĠPhoto": 1333,
  "ĠPhotography": 21521,
  "ĠPhotos": 10878,
  "ĠPhysics": 31590,
  "ĠPiet": 20964,
  "ĠPigs": 43249,
  "ĠPil": 13601,
  "ĠPill": 24722,
  "ĠPillar": 38464,
  "ĠPitt": 9386,
  "ĠPittsburgh": 4386,
  "ĠPl": 3037,
  "ĠPlace": 6067,
  "ĠPlague": 46649,
  "ĠPlan": 5427,
  "ĠPlanet": 14839,
  "ĠPlanning": 9619,
  "ĠPlans": 18153,
  "ĠPlant": 12124,
  "ĠPlay": 3902,
  "ĠPlays": 39163,
  "ĠPle": 18486,
  "ĠPleasant": 15152,
  "ĠPlease": 3401,
  "ĠPlot": 39154,
  "ĠPluto": 36517,
  "ĠPodesta": 33735,
  "ĠPoland": 6508,
  "ĠPolice": 522,
  "ĠPolicy": 6275,
  "ĠPolit": 16373,
  "ĠPolitical": 10316,
  "ĠPolitico": 20773,
  "ĠPolitics": 16226,
  "ĠPoll": 7927,
  "ĠPoly": 10415,
  "ĠPompe": 8452,
  "ĠPont": 16862,
  "ĠPoor": 11253,
  "ĠPop": 7975,
  "ĠPope": 8509,
  "ĠPopulation": 29350,
  "ĠPork": 35385,
  "ĠPorsche": 15091,
  "ĠPort": 2848,
  "ĠPorter": 9028,
  "ĠPosition": 21355,
  "ĠPossible": 32104,
  "ĠPost": 1869,
  "ĠPosted": 16171,
  "ĠPotter": 10997,
  "ĠPowell": 8274,
  "ĠPower": 3029,
  "ĠPra": 17644,
  "ĠPractices": 33682,
  "ĠPratt": 17269,
  "ĠPrayer": 28003,
  "ĠPre": 5048,
  "ĠPred": 24268,
  "ĠPredict": 38192,
  "ĠPrediction": 27851,
  "ĠPrel": 26449,
  "ĠPrep": 13915,
  "ĠPrepar": 32134,
  "ĠPres": 7946,
  "ĠPresence": 43340,
  "ĠPresidency": 22186,
  "ĠPresident": 270,
  "ĠPresidential": 10893,
  "ĠPress": 977,
  "ĠPret": 18203,
  "ĠPrevent": 30331,
  "ĠPrevention": 10693,
  "ĠPreview": 24005,
  "ĠPri": 9522,
  "ĠPrice": 3655,
  "ĠPricing": 29574,
  "ĠPride": 13170,
  "ĠPrim": 15896,
  "ĠPrimary": 11518,
  "ĠPrime": 1489,
  "ĠPrinceton": 18757,
  "ĠPrincipal": 13619,
  "ĠPrinciples": 39241,
  "ĠPrint": 6883,
  "ĠPriv": 27876,
  "ĠPrivacy": 17005,
  "ĠPrivate": 8075,
  "ĠPrize": 9421,
  "ĠPro": 1698,
  "ĠProbably": 20847,
  "ĠProbe": 40552,
  "ĠProcedures": 44232,
  "ĠProf": 6853,
  "ĠProfession": 30452,
  "ĠProfessor": 6020,
  "ĠProgram": 4928,
  "ĠProgramme": 14990,
  "ĠProgress": 11679,
  "ĠProgressive": 15174,
  "ĠProhibition": 32629,
  "ĠProject": 3728,
  "ĠProjects": 23965,
  "ĠProm": 10772,
  "ĠProof": 34628,
  "ĠProp": 13695,
  "ĠProsecut": 39039,
  "ĠProsecutors": 7924,
  "ĠProt": 20873,
  "ĠProtect": 21898,
  "ĠProtection": 5922,
  "ĠProtestant": 33478,
  "ĠProtestants": 43705,
  "ĠProvided": 33108,
  "ĠProvides": 42681,
  "ĠProvince": 16517,
  "ĠPsych": 33251,
  "ĠPsychology": 32255,
  "ĠPu": 10282,
  "ĠPub": 17689,
  "ĠPublic": 1909,
  "ĠPublished": 13002,
  "ĠPuerto": 5821,
  "ĠPulitzer": 26205,
  "ĠPun": 14687,
  "ĠPunk": 29780,
  "ĠPur": 11834,
  "ĠPurchase": 20917,
  "ĠPut": 9722,
  "ĠPutin": 3176,
  "ĠPyongyang": 7625,
  "ĠQ": 1209,
  "ĠQC": 24703,
  "ĠQaeda": 16023,
  "ĠQatar": 5978,
  "ĠQu": 3232,
  "ĠQuad": 19097,
  "ĠQuartz": 36544,
  "ĠQuebec": 7534,
  "ĠQueen": 3929,
  "ĠQuentin": 31062,
  "ĠQuestion": 15680,
  "ĠQuick": 13287,
  "ĠQuit": 41990,
  "ĠQur": 42878,
  "ĠQuran": 38316,
  "ĠR": 248,
  "ĠRE": 4979,
  "ĠREC": 14895,
  "ĠREL": 5698,
  "ĠREPORT": 13060,
  "ĠRIS": 31775,
  "ĠRO": 10033,
  "ĠROB": 31989,
  "ĠRT": 10541,
  "ĠRa": 4833,
  "ĠRabbi": 27055,
  "ĠRace": 8989,
  "ĠRachel": 7423,
  "ĠRad": 7312,
  "ĠRadical": 37749,
  "ĠRadio": 4611,
  "ĠRah": 10890,
  "ĠRahman": 23269,
  "ĠRaiders": 6194,
  "ĠRaj": 3288,
  "ĠRak": 22333,
  "ĠRally": 20918,
  "ĠRalph": 10594,
  "ĠRam": 3513,
  "ĠRamirez": 12715,
  "ĠRamsey": 14658,
  "ĠRand": 10714,
  "ĠRandy": 11144,
  "ĠRangers": 5706,
  "ĠRao": 17347,
  "ĠRapid": 20632,
  "ĠRapt": 38102,
  "ĠRaqqa": 23277,
  "ĠRas": 15808,
  "ĠRash": 9516,
  "ĠRasmussen": 31710,
  "ĠRat": 12041,
  "ĠRather": 9752,
  "ĠRay": 4622,
  "ĠRaymond": 10526,
  "ĠRazor": 33808,
  "ĠRe": 1223,
  "ĠReach": 16054,
  "ĠReady": 19325,
  "ĠReagan": 11625,
  "ĠReal": 2822,
  "ĠReality": 21479,
  "ĠReally": 16923,
  "ĠRec": 7382,
  "ĠRecall": 35109,
  "ĠRecent": 12845,
  "ĠRecep": 23977,
  "ĠRecession": 28253,
  "ĠRecomm": 47506,
  "ĠRecon": 25273,
  "ĠRecord": 10788,
  "ĠRecords": 10023,
  "ĠRecovery": 16505,
  "ĠRed": 1211,
  "ĠReddit": 6844,
  "ĠReds": 9269,
  "ĠReduce": 38053,
  "ĠRef": 8526,
  "ĠReform": 12287,
  "ĠRefugees": 29859,
  "ĠReg": 6304,
  "ĠRegiment": 33988,
  "ĠRegion": 6131,
  "ĠRegional": 4722,
  "ĠRegister": 10315,
  "ĠRegistration": 15490,
  "ĠRegulation": 18912,
  "ĠRegulations": 30793,
  "ĠRegulatory": 18193,
  "ĠReid": 8519,
  "ĠRein": 17789,
  "ĠRelated": 3283,
  "ĠRelations": 7081,
  "ĠRelationship": 37917,
  "ĠRelease": 15781,
  "ĠReleased": 30939,
  "ĠReligion": 34530,
  "ĠReligious": 27708,
  "ĠRem": 8022,
  "ĠRemain": 27885,
  "ĠRemember": 9427,
  "ĠRemoval": 41315,
  "ĠRep": 2825,
  "ĠReplay": 43582,
  "ĠReport": 2872,
  "ĠReporter": 9989,
  "ĠReporting": 22100,
  "ĠReports": 8753,
  "ĠRepresentative": 10308,
  "ĠRepresentatives": 7395,
  "ĠRepublic": 3497,
  "ĠRepublican": 1172,
  "ĠRepublicans": 1858,
  "ĠRes": 4787,
  "ĠRescue": 8801,
  "ĠResearch": 1624,
  "ĠReserve": 3965,
  "ĠResidents": 10073,
  "ĠResolution": 22565,
  "ĠRespect": 33106,
  "ĠRespond": 16533,
  "ĠResponse": 19121,
  "ĠRest": 8426,
  "ĠRestore": 42923,
  "ĠResurrection": 42821,
  "ĠRet": 9944,
  "ĠReturn": 11968,
  "ĠReuters": 1201,
  "ĠRev": 7161,
  "ĠReve": 23000,
  "ĠRevelation": 44906,
  "ĠRevenue": 5833,
  "ĠReverse": 41775,
  "ĠReview": 5872,
  "ĠRevolution": 13340,
  "ĠRevolutionary": 22110,
  "ĠRex": 9746,
  "ĠReyes": 19088,
  "ĠReyn": 31268,
  "ĠRez": 36623,
  "ĠRh": 8778,
  "ĠRic": 9039,
  "ĠRican": 25881,
  "ĠRicardo": 19672,
  "ĠRichard": 2431,
  "ĠRick": 4434,
  "ĠRico": 6511,
  "ĠRidge": 8270,
  "ĠRifle": 23768,
  "ĠRig": 20330,
  "ĠRight": 5143,
  "ĠRights": 3941,
  "ĠRing": 11533,
  "ĠRio": 5716,
  "ĠRise": 20644,
  "ĠRising": 14911,
  "ĠRite": 32037,
  "ĠRiver": 1995,
  "ĠRiyadh": 14470,
  "ĠRo": 3830,
  "ĠRoad": 1214,
  "ĠRob": 3005,
  "ĠRobbins": 24982,
  "ĠRobert": 1738,
  "ĠRoberts": 6274,
  "ĠRobin": 8472,
  "ĠRobinson": 5380,
  "ĠRock": 2751,
  "ĠRod": 6816,
  "ĠRodham": 46581,
  "ĠRodriguez": 7288,
  "ĠRoger": 6682,
  "ĠRolls": 22924,
  "ĠRom": 7827,
  "ĠRoman": 7733,
  "ĠRomania": 12940,
  "ĠRomans": 35008,
  "ĠRome": 8947,
  "ĠRomney": 11896,
  "ĠRomo": 24560,
  "ĠRon": 5529,
  "ĠRonald": 9317,
  "ĠRoom": 8499,
  "ĠRos": 4168,
  "ĠRose": 3199,
  "ĠRosenstein": 16345,
  "ĠRoss": 4012,
  "ĠRot": 9104,
  "ĠRoth": 13880,
  "ĠRothschild": 33403,
  "ĠRouhani": 17924,
  "ĠRoute": 8828,
  "ĠRow": 9224,
  "ĠRoy": 5470,
  "ĠRoyal": 2930,
  "ĠRu": 10318,
  "ĠRub": 12239,
  "ĠRud": 19257,
  "ĠRudolph": 26072,
  "ĠRudy": 20243,
  "ĠRuff": 28352,
  "ĠRuin": 46332,
  "ĠRuler": 43493,
  "ĠRules": 13086,
  "ĠRumble": 25720,
  "ĠRun": 7435,
  "ĠRural": 16058,
  "ĠRus": 14762,
  "ĠRush": 13061,
  "ĠRuss": 18184,
  "ĠRussell": 4849,
  "ĠRussia": 798,
  "ĠRussian": 1083,
  "ĠRussians": 8241,
  "ĠRut": 18825,
  "ĠRwanda": 16684,
  "ĠRyan": 1774,
  "ĠS": 208,
  "ĠSAF": 30334,
  "ĠSAN": 14055,
  "ĠSAR": 34565,
  "ĠSAY": 29391,
  "ĠSC": 4998,
  "ĠSD": 12723,
  "ĠSEC": 3614,
  "ĠSH": 4584,
  "ĠSHARES": 31572,
  "ĠSIGN": 17803,
  "ĠSN": 13687,
  "ĠSNP": 20472,
  "ĠSO": 13910,
  "ĠSOL": 30352,
  "ĠSPACE": 44909,
  "ĠSS": 11643,
  "ĠSTOP": 40061,
  "ĠSU": 9557,
  "ĠSUB": 25272,
  "ĠSUR": 31987,
  "ĠSUV": 8000,
  "ĠSac": 27957,
  "ĠSachs": 8922,
  "ĠSacrament": 46139,
  "ĠSacramento": 7759,
  "ĠSacred": 25095,
  "ĠSacrifice": 46348,
  "ĠSad": 10738,
  "ĠSadly": 18810,
  "ĠSafe": 13793,
  "ĠSafety": 5264,
  "ĠSah": 16585,
  "ĠSaid": 13951,
  "ĠSailor": 41535,
  "ĠSaint": 6130,
  "ĠSal": 2575,
  "ĠSale": 9140,
  "ĠSalem": 15942,
  "ĠSales": 4706,
  "ĠSalv": 19511,
  "ĠSalvador": 14254,
  "ĠSam": 1960,
  "ĠSame": 17754,
  "ĠSamson": 28434,
  "ĠSamuel": 9581,
  "ĠSan": 764,
  "ĠSanchez": 6678,
  "ĠSanctuary": 27731,
  "ĠSand": 4219,
  "ĠSanders": 5316,
  "ĠSandra": 13843,
  "ĠSands": 21673,
  "ĠSant": 8550,
  "ĠSantiago": 13823,
  "ĠSap": 25452,
  "ĠSar": 4701,
  "ĠSara": 11686,
  "ĠSarah": 4143,
  "ĠSark": 15562,
  "ĠSatan": 33649,
  "ĠSatanic": 44881,
  "ĠSaturday": 378,
  "ĠSaturn": 25012,
  "ĠSau": 18122,
  "ĠSaudi": 2030,
  "ĠSaudis": 20313,
  "ĠSaul": 23144,
  "ĠSaunders": 18180,
  "ĠSav": 9721,
  "ĠSave": 11873,
  "ĠSavior": 40910,
  "ĠSaying": 35009,
  "ĠSays": 15674,
  "ĠSc": 2741,
  "ĠScan": 24753,
  "ĠScare": 44429,
  "ĠSch": 1811,
  "ĠScha": 22775,
  "ĠSche": 9555,
  "ĠScheme": 21759,
  "ĠSchiff": 22143,
  "ĠSchneider": 12710,
  "ĠSchool": 835,
  "ĠSchools": 7101,
  "ĠSchultz": 16901,
  "ĠSchumer": 10783,
  "ĠSchwe": 22958,
  "ĠScore": 14702,
  "ĠScotland": 3430,
  "ĠScott": 1699,
  "ĠScottish": 5411,
  "ĠScripture": 40616,
  "ĠScriptures": 46320,
  "ĠSe": 1608,
  "ĠSea": 3939,
  "ĠSean": 4640,
  "ĠSear": 33454,
  "ĠSeattle": 3417,
  "ĠSec": 16236,
  "ĠSecond": 4665,
  "ĠSecret": 8350,
  "ĠSecretary": 1863,
  "ĠSection": 7162,
  "ĠSector": 15816,
  "ĠSecurity": 2010,
  "ĠSed": 17134,
  "ĠSee": 4250,
  "ĠSek": 21780,
  "ĠSelect": 10908,
  "ĠSell": 12292,
  "ĠSem": 11202,
  "ĠSen": 2211,
  "ĠSenate": 1112,
  "ĠSenator": 4336,
  "ĠSenators": 10421,
  "ĠSend": 10683,
  "ĠSenior": 3596,
  "ĠSept": 1919,
  "ĠSeptember": 772,
  "ĠSer": 6251,
  "ĠSergeant": 19609,
  "ĠSergei": 15458,
  "ĠSergey": 23509,
  "ĠSerial": 42477,
  "ĠSeries": 3265,
  "ĠServ": 16691,
  "ĠServer": 30472,
  "ĠService": 1841,
  "ĠServices": 1820,
  "ĠSessions": 5899,
  "ĠSeth": 10747,
  "ĠSett": 35082,
  "ĠSeventh": 26734,
  "ĠSeveral": 3646,
  "ĠSex": 15516,
  "ĠSexual": 18600,
  "ĠSeymour": 28903,
  "ĠSh": 840,
  "ĠShadow": 19194,
  "ĠShah": 5277,
  "ĠShakespeare": 16538,
  "ĠShane": 10235,
  "ĠShap": 35069,
  "ĠShapiro": 24281,
  "ĠShar": 8261,
  "ĠSharia": 39812,
  "ĠShattered": 47172,
  "ĠShaw": 8390,
  "ĠShay": 19825,
  "ĠShe": 264,
  "ĠShea": 24326,
  "ĠShed": 34891,
  "ĠSheep": 38112,
  "ĠSheikh": 11878,
  "ĠSheldon": 21882,
  "ĠShelley": 26576,
  "ĠShepard": 24067,
  "ĠShepherd": 17053,
  "ĠSheriff": 2795,
  "ĠShiite": 25466,
  "ĠShine": 28276,
  "ĠShinzo": 19861,
  "ĠShiv": 16903,
  "ĠSho": 17411,
  "ĠShoot": 28453,
  "ĠShooter": 41148,
  "ĠShooting": 25096,
  "ĠShortly": 13450,
  "ĠShot": 20796,
  "ĠShots": 35037,
  "ĠShould": 7698,
  "ĠShow": 2907,
  "ĠShowdown": 41898,
  "ĠShows": 28677,
  "ĠShutdown": 41631,
  "ĠSic": 26810,
  "ĠSick": 29385,
  "ĠSieg": 35494,
  "ĠSiege": 43722,
  "ĠSierra": 8682,
  "ĠSig": 17427,
  "ĠSight": 31833,
  "ĠSign": 4313,
  "ĠSigned": 33994,
  "ĠSilence": 33992,
  "ĠSilicon": 10087,
  "ĠSilva": 9392,
  "ĠSim": 6202,
  "ĠSimmons": 10215,
  "ĠSimon": 4616,
  "ĠSin": 8356,
  "ĠSinai": 23039,
  "ĠSingapore": 2920,
  "ĠSinn": 23946,
  "ĠSir": 5348,
  "ĠSister": 18319,
  "ĠSituation": 34346,
  "ĠSixth": 24405,
  "ĠSk": 4058,
  "ĠSky": 3601,
  "ĠSl": 4424,
  "ĠSlate": 27871,
  "ĠSlav": 35224,
  "ĠSlov": 33458,
  "ĠSlovakia": 23072,
  "ĠSm": 4966,
  "ĠSmith": 1259,
  "ĠSmoking": 38001,
  "ĠSmy": 23939,
  "ĠSno": 29952,
  "ĠSnow": 7918,
  "ĠSnowden": 23339,
  "ĠSo": 407,
  "ĠSob": 21055,
  "ĠSoc": 14585,
  "ĠSocial": 3574,
  "ĠSocialist": 19476,
  "ĠSociety": 3930,
  "ĠSod": 33270,
  "ĠSof": 15982,
  "ĠSol": 4856,
  "ĠSolar": 11400,
  "ĠSold": 26456,
  "ĠSolomon": 17455,
  "ĠSolution": 29381,
  "ĠSolutions": 7874,
  "ĠSomali": 21271,
  "ĠSomalia": 12491,
  "ĠSome": 993,
  "ĠSomeone": 15412,
  "ĠSomething": 13676,
  "ĠSon": 4969,
  "ĠSons": 21913,
  "ĠSoon": 9561,
  "ĠSoros": 21093,
  "ĠSorry": 19719,
  "ĠSound": 8479,
  "ĠSource": 4253,
  "ĠSources": 11598,
  "ĠSouth": 391,
  "ĠSoutheast": 6079,
  "ĠSouthern": 2944,
  "ĠSov": 41162,
  "ĠSoviet": 8297,
  "ĠSoviets": 40971,
  "ĠSp": 2064,
  "ĠSpace": 5374,
  "ĠSpain": 2809,
  "ĠSpanish": 3453,
  "ĠSpark": 20255,
  "ĠSpe": 8330,
  "ĠSpeaker": 6358,
  "ĠSpeaking": 3580,
  "ĠSpecial": 3672,
  "ĠSpect": 18065,
  "ĠSpeech": 27242,
  "ĠSpencer": 8153,
  "ĠSpirit": 11758,
  "ĠSpl": 25873,
  "ĠSpot": 13623,
  "ĠSpread": 29192,
  "ĠSpring": 5519,
  "ĠSprings": 6388,
  "ĠSpy": 26982,
  "ĠSquadron": 34761,
  "ĠSquare": 5041,
  "ĠSri": 6604,
  "ĠSt": 312,
  "ĠStadium": 2689,
  "ĠStaff": 5721,
  "ĠStalin": 26507,
  "ĠStan": 8995,
  "ĠStandard": 5787,
  "ĠStandards": 19091,
  "ĠStanford": 8607,
  "ĠStanley": 4725,
  "ĠStar": 2141,
  "ĠStars": 7144,
  "ĠStart": 2776,
  "ĠState": 331,
  "ĠStatement": 19356,
  "ĠStates": 532,
  "ĠStation": 5088,
  "ĠStatus": 17058,
  "ĠSte": 5527,
  "ĠSteele": 14556,
  "ĠStefan": 14538,
  "ĠStein": 9795,
  "ĠSteph": 20863,
  "ĠStephen": 3259,
  "ĠSteps": 30123,
  "ĠSteve": 2206,
  "ĠSteven": 5031,
  "ĠStewart": 6192,
  "ĠStill": 3180,
  "ĠSting": 29157,
  "ĠSto": 23888,
  "ĠStock": 3412,
  "ĠStockholm": 18850,
  "ĠStone": 5482,
  "ĠStop": 12457,
  "ĠStories": 9739,
  "ĠStorm": 5809,
  "ĠStory": 3718,
  "ĠStr": 5997,
  "ĠStra": 13893,
  "ĠStras": 23374,
  "ĠStrategy": 12660,
  "ĠStream": 16183,
  "ĠStreet": 852,
  "ĠStrike": 24044,
  "ĠStrikes": 39889,
  "ĠStrip": 12943,
  "ĠStrong": 8776,
  "ĠStudent": 9067,
  "ĠStudents": 6983,
  "ĠStudies": 9307,
  "ĠStudios": 11863,
  "ĠStudy": 13019,
  "ĠSu": 3296,
  "ĠSub": 4052,
  "ĠSubcommittee": 39823,
  "ĠSubmission": 43574,
  "ĠSubmit": 20503,
  "ĠSubscribe": 9907,
  "ĠSubst": 27263,
  "ĠSuccess": 14361,
  "ĠSuch": 5598,
  "ĠSudan": 6312,
  "ĠSue": 14239,
  "ĠSuicide": 25053,
  "ĠSummit": 7271,
  "ĠSun": 2083,
  "ĠSund": 12282,
  "ĠSunday": 395,
  "ĠSunni": 15014,
  "ĠSup": 17901,
  "ĠSuper": 1582,
  "ĠSupervisor": 20912,
  "ĠSupp": 13256,
  "ĠSupply": 13612,
  "ĠSupport": 7737,
  "ĠSupporters": 18730,
  "ĠSupporting": 26515,
  "ĠSupports": 44570,
  "ĠSupreme": 2124,
  "ĠSur": 6544,
  "ĠSure": 9136,
  "ĠSurrey": 15693,
  "ĠSurve": 39822,
  "ĠSurveillance": 23948,
  "ĠSurvey": 11624,
  "ĠSurvive": 44788,
  "ĠSurvivors": 28044,
  "ĠSus": 10471,
  "ĠSusan": 6470,
  "ĠSusp": 23867,
  "ĠSut": 29790,
  "ĠSuzanne": 24158,
  "ĠSw": 3323,
  "ĠSwed": 25517,
  "ĠSweden": 6171,
  "ĠSwedish": 9004,
  "ĠSwiss": 5092,
  "ĠSwitzerland": 6413,
  "ĠSword": 39940,
  "ĠSy": 5767,
  "ĠSydney": 4290,
  "ĠSyn": 16241,
  "ĠSyndrome": 27854,
  "ĠSyria": 1854,
  "ĠSyrian": 3085,
  "ĠSystem": 5149,
  "ĠSz": 15837,
  "ĠT": 255,
  "ĠTE": 13180,
  "ĠTER": 28107,
  "ĠTF": 35690,
  "ĠTH": 8640,
  "ĠTHANK": 42787,
  "ĠTHAT": 24394,
  "ĠTHE": 1941,
  "ĠTHIS": 10652,
  "ĠTIME": 18034,
  "ĠTJ": 23461,
  "ĠTL": 27017,
  "ĠTO": 3842,
  "ĠTODAY": 6733,
  "ĠTOTAL": 36575,
  "ĠTRI": 32725,
  "ĠTRUMP": 21751,
  "ĠTT": 23529,
  "ĠTV": 1012,
  "ĠTWO": 34302,
  "ĠTX": 12031,
  "ĠTY": 39223,
  "ĠTab": 12765,
  "ĠTable": 9513,
  "ĠTaiwan": 6951,
  "ĠTake": 4624,
  "ĠTakes": 29072,
  "ĠTaking": 10883,
  "ĠTaliban": 7597,
  "ĠTalk": 10391,
  "ĠTant": 40449,
  "ĠTanzania": 15874,
  "ĠTara": 20916,
  "ĠTarg": 29523,
  "ĠTas": 33048,
  "ĠTask": 12927,
  "ĠTayyip": 18053,
  "ĠTeach": 38214,
  "ĠTeachers": 14245,
  "ĠTeaching": 27987,
  "ĠTeam": 2711,
  "ĠTech": 4569,
  "ĠTechnical": 12920,
  "ĠTed": 8115,
  "ĠTeen": 13392,
  "ĠTeg": 36495,
  "ĠTehran": 9034,
  "ĠTelegraph": 12400,
  "ĠTelescope": 34152,
  "ĠTell": 11378,
  "ĠTemper": 18465,
  "ĠTen": 4527,
  "ĠTennessee": 3719,
  "ĠTens": 29031,
  "ĠTer": 5094,
  "ĠTerms": 20374,
  "ĠTerror": 23877,
  "ĠTerrorism": 28294,
  "ĠTerry": 6840,
  "ĠTest": 4500,
  "ĠTestament": 36209,
  "ĠTexas": 1184,
  "ĠText": 14159,
  "ĠTh": 2032,
  "ĠThailand": 6547,
  "ĠThames": 23131,
  "ĠThan": 15446,
  "ĠThank": 3837,
  "ĠThanks": 4557,
  "ĠThat": 280,
  "ĠThatcher": 28123,
  "ĠThe": 20,
  "ĠTheft": 27788,
  "ĠTheir": 2667,
  "ĠThem": 28595,
  "ĠThen": 1892,
  "ĠTheodore": 26164,
  "ĠThere": 345,
  "ĠTheresa": 6188,
  "ĠThese": 1216,
  "ĠThey": 252,
  "ĠThin": 31747,
  "ĠThing": 27033,
  "ĠThink": 9387,
  "ĠThird": 7470,
  "ĠThis": 152,
  "ĠThomas": 1813,
  "ĠThomson": 5869,
  "ĠThorn": 22108,
  "ĠThose": 2246,
  "ĠThough": 3791,
  "ĠThought": 30631,
  "ĠThousand": 24359,
  "ĠThousands": 12233,
  "ĠThreat": 20324,
  "ĠThree": 2873,
  "ĠThrones": 13480,
  "ĠThrough": 6278,
  "ĠThunder": 8314,
  "ĠThur": 19731,
  "ĠThursday": 296,
  "ĠThus": 10623,
  "ĠTillerson": 8760,
  "ĠTim": 2668,
  "ĠTime": 3421,
  "ĠTimeline": 41600,
  "ĠTimes": 1513,
  "ĠTimothy": 12134,
  "ĠTina": 15720,
  "ĠTo": 598,
  "ĠTob": 15915,
  "ĠTobacco": 20246,
  "ĠToday": 2477,
  "ĠTodd": 6540,
  "ĠToll": 19466,
  "ĠTom": 1560,
  "ĠTommy": 8880,
  "ĠTon": 18405,
  "ĠTong": 17922,
  "ĠTonight": 11765,
  "ĠTony": 3621,
  "ĠToo": 12135,
  "ĠTop": 3107,
  "ĠTopics": 17266,
  "ĠTor": 6623,
  "ĠTorah": 38783,
  "ĠTories": 20371,
  "ĠToronto": 2177,
  "ĠTory": 10886,
  "ĠTos": 17135,
  "ĠTotal": 5480,
  "ĠTough": 31155,
  "ĠTour": 3637,
  "ĠTower": 7186,
  "ĠTowers": 26696,
  "ĠTr": 2393,
  "ĠTra": 8221,
  "ĠTrade": 4466,
  "ĠTradition": 40880,
  "ĠTraditional": 22530,
  "ĠTraffic": 11830,
  "ĠTraining": 10657,
  "ĠTrans": 5428,
  "ĠTransportation": 6586,
  "ĠTravis": 8308,
  "ĠTre": 6213,
  "ĠTreasury": 4732,
  "ĠTrend": 14154,
  "ĠTrent": 10977,
  "ĠTrey": 19568,
  "ĠTrial": 24296,
  "ĠTribune": 7990,
  "ĠTrinity": 13544,
  "ĠTriumph": 34839,
  "ĠTro": 6354,
  "ĠTrop": 33660,
  "ĠTropical": 18683,
  "ĠTrou": 28419,
  "ĠTruck": 17162,
  "ĠTrudeau": 7064,
  "ĠTrue": 7447,
  "ĠTrump": 140,
  "ĠTrust": 3101,
  "ĠTruth": 16945,
  "ĠTrying": 28386,
  "ĠTucker": 13336,
  "ĠTues": 20423,
  "ĠTuesday": 294,
  "ĠTunisia": 17371,
  "ĠTurk": 19683,
  "ĠTurkey": 2769,
  "ĠTurkish": 4423,
  "ĠTurks": 27539,
  "ĠTurn": 10812,
  "ĠTurnbull": 13279,
  "ĠTw": 9922,
  "ĠTwe": 18868,
  "ĠTweet": 12244,
  "ĠTwilight": 35873,
  "ĠTwin": 15070,
  "ĠTwitter": 599,
  "ĠTwo": 1596,
  "ĠTyler": 5599,
  "ĠTyr": 18640,
  "ĠU": 121,
  "ĠUAE": 9170,
  "ĠUK": 987,
  "ĠUKIP": 35829,
  "ĠUN": 2604,
  "ĠURL": 33000,
  "ĠUS": 382,
  "ĠUSA": 2805,
  "ĠUSB": 10478,
  "ĠUSS": 18596,
  "ĠUV": 22575,
  "ĠUg": 20293,
  "ĠUganda": 11895,
  "ĠUkraine": 4174,
  "ĠUkrainian": 9302,
  "ĠUkrainians": 40248,
  "ĠUl": 16644,
  "ĠUlster": 21544,
  "ĠUltimately": 13832,
  "ĠUn": 1890,
  "ĠUnc": 29424,
  "ĠUncle": 25848,
  "ĠUnder": 2096,
  "ĠUnemployment": 34690,
  "ĠUnfortunately": 6802,
  "ĠUnion": 1332,
  "ĠUnit": 7545,
  "ĠUnited": 315,
  "ĠUnity": 19573,
  "ĠUniv": 35232,
  "ĠUnivers": 24066,
  "ĠUniversal": 9973,
  "ĠUniversities": 27218,
  "ĠUniversity": 589,
  "ĠUnt": 32330,
  "ĠUntil": 9012,
  "ĠUp": 3105,
  "ĠUpdated": 17234,
  "ĠUr": 9163,
  "ĠUran": 32128,
  "ĠUrban": 8595,
  "ĠUrs": 28861,
  "ĠUruguay": 17609,
  "ĠUs": 4890,
  "ĠUse": 7627,
  "ĠUsed": 30374,
  "ĠUseful": 46835,
  "ĠUt": 11183,
  "ĠUz": 30554,
  "ĠV": 468,
  "ĠVA": 11790,
  "ĠVER": 37616,
  "ĠVI": 11663,
  "ĠVIDEOS": 21671,
  "ĠVIII": 35959,
  "ĠVO": 36584,
  "ĠVP": 13913,
  "ĠVa": 9414,
  "ĠVacc": 27610,
  "ĠVal": 3767,
  "ĠValent": 18352,
  "ĠValentine": 10539,
  "ĠValerie": 22302,
  "ĠVall": 25424,
  "ĠValley": 1739,
  "ĠValue": 11714,
  "ĠVan": 3415,
  "ĠVanessa": 17681,
  "ĠVanity": 25739,
  "ĠVatican": 11484,
  "ĠVegas": 2461,
  "ĠVend": 27565,
  "ĠVenezuela": 6037,
  "ĠVenice": 19512,
  "ĠVer": 3060,
  "ĠVermont": 10487,
  "ĠVersion": 35110,
  "ĠVest": 24534,
  "ĠVic": 13708,
  "ĠVice": 3287,
  "ĠVict": 41269,
  "ĠVictim": 34349,
  "ĠVictims": 25320,
  "ĠVictor": 8804,
  "ĠVictoria": 4769,
  "ĠVideo": 5338,
  "ĠVideos": 18577,
  "ĠVienna": 15534,
  "ĠVietnam": 5490,
  "ĠVietnamese": 16859,
  "ĠViktor": 22076,
  "ĠVill": 7296,
  "ĠVin": 11737,
  "ĠVince": 14453,
  "ĠViolence": 17101,
  "ĠViolent": 36483,
  "ĠVirgin": 9880,
  "ĠVirginia": 2240,
  "ĠVirtual": 21741,
  "ĠVirus": 41199,
  "ĠVisit": 6252,
  "ĠVladimir": 6546,
  "ĠVoc": 36413,
  "ĠVoice": 10880,
  "ĠVoices": 30006,
  "ĠVolume": 18071,
  "ĠVote": 17768,
  "ĠVoter": 32262,
  "ĠVoters": 17646,
  "ĠVotes": 39347,
  "ĠVox": 33856,
  "ĠW": 305,
  "ĠWA": 9342,
  "ĠWAR": 22543,
  "ĠWATCH": 10187,
  "ĠWATCHED": 49336,
  "ĠWAY": 26727,
  "ĠWHAT": 13331,
  "ĠWHO": 13387,
  "ĠWHY": 34912,
  "ĠWILL": 18342,
  "ĠWOR": 31534,
  "ĠWORK": 32008,
  "ĠWTO": 21896,
  "ĠWWII": 29001,
  "ĠWade": 8914,
  "ĠWah": 19478,
  "ĠWal": 6092,
  "ĠWales": 5295,
  "ĠWalker": 4461,
  "ĠWalking": 16107,
  "ĠWall": 2298,
  "ĠWallace": 10379,
  "ĠWalter": 10378,
  "ĠWang": 9705,
  "ĠWant": 7348,
  "ĠWanted": 33149,
  "ĠWar": 1771,
  "ĠWarn": 26367,
  "ĠWarner": 6123,
  "ĠWarren": 5432,
  "ĠWarriors": 4223,
  "ĠWars": 6975,
  "ĠWas": 6871,
  "ĠWashington": 663,
  "ĠWasserman": 36127,
  "ĠWatch": 3075,
  "ĠWatching": 26535,
  "ĠWatergate": 32485,
  "ĠWaters": 12480,
  "ĠWatson": 5399,
  "ĠWatt": 18989,
  "ĠWay": 4846,
  "ĠWays": 24049,
  "ĠWe": 166,
  "ĠWeapon": 39813,
  "ĠWeapons": 28054,
  "ĠWeather": 5842,
  "ĠWebb": 13804,
  "ĠWednesday": 307,
  "ĠWeek": 2852,
  "ĠWeekly": 7830,
  "ĠWein": 27589,
  "ĠWeiner": 29453,
  "ĠWeiss": 20130,
  "ĠWell": 2647,
  "ĠWells": 6093,
  "ĠWend": 21256,
  "ĠWent": 14597,
  "ĠWere": 18258,
  "ĠWes": 15590,
  "ĠWesley": 16401,
  "ĠWest": 580,
  "ĠWester": 25483,
  "ĠWestern": 2027,
  "ĠWestminster": 11215,
  "ĠWet": 20925,
  "ĠWh": 3990,
  "ĠWhat": 653,
  "ĠWhatsApp": 6861,
  "ĠWhen": 520,
  "ĠWhere": 4820,
  "ĠWhether": 5994,
  "ĠWhile": 616,
  "ĠWhip": 31873,
  "ĠWhit": 7559,
  "ĠWhite": 735,
  "ĠWho": 3394,
  "ĠWhole": 14727,
  "ĠWhy": 2612,
  "ĠWicked": 39098,
  "ĠWife": 28372,
  "ĠWikiLeaks": 18568,
  "ĠWikileaks": 38629,
  "ĠWil": 3884,
  "ĠWild": 3962,
  "ĠWiley": 29701,
  "ĠWill": 2290,
  "ĠWilliam": 2897,
  "ĠWilliams": 1604,
  "ĠWilson": 3095,
  "ĠWin": 5711,
  "ĠWind": 7247,
  "ĠWinner": 16783,
  "ĠWinston": 12415,
  "ĠWire": 14809,
  "ĠWired": 36572,
  "ĠWisconsin": 4222,
  "ĠWitch": 29085,
  "ĠWith": 590,
  "ĠWithin": 9842,
  "ĠWithout": 6830,
  "ĠWitt": 29088,
  "ĠWizard": 31893,
  "ĠWol": 13847,
  "ĠWolf": 7602,
  "ĠWolfe": 21687,
  "ĠWolver": 17100,
  "ĠWolves": 13889,
  "ĠWoman": 9117,
  "ĠWomen": 2691,
  "ĠWong": 13257,
  "ĠWood": 3132,
  "ĠWoody": 23561,
  "ĠWool": 14924,
  "ĠWord": 15690,
  "ĠWords": 27341,
  "ĠWork": 6011,
  "ĠWorker": 35801,
  "ĠWorking": 11214,
  "ĠWorld": 623,
  "ĠWorldwide": 17104,
  "ĠWould": 11258,
  "ĠWright": 5825,
  "ĠWrite": 21062,
  "ĠWriting": 8123,
  "ĠX": 1577,
  "ĠXI": 15419,
  "ĠXII": 43904,
  "ĠXIII": 46055,
  "ĠXVI": 42171,
  "ĠXavier": 14037,
  "ĠXi": 7030,
  "ĠY": 854,
  "ĠYEAR": 22554,
  "ĠYORK": 4180,
  "ĠYOU": 10540,
  "ĠYPG": 27165,
  "ĠYahoo": 10354,
  "ĠYale": 15122,
  "ĠYe": 11467,
  "ĠYear": 2041,
  "ĠYears": 10426,
  "ĠYellow": 14708,
  "ĠYemen": 6519,
  "ĠYemeni": 23045,
  "ĠYep": 33597,
  "ĠYes": 3216,
  "ĠYet": 3507,
  "ĠYi": 27556,
  "ĠYor": 25479,
  "ĠYork": 469,
  "ĠYorker": 18325,
  "ĠYou": 370,
  "ĠYouTube": 4037,
  "ĠYoung": 2880,
  "ĠYour": 2486,
  "ĠYouth": 6947,
  "ĠZ": 525,
  "ĠZak": 17388,
  "ĠZamb": 14400,
  "ĠZar": 17122,
  "ĠZe": 10915,
  "ĠZeit": 22221,
  "ĠZen": 13985,
  "ĠZero": 15472,
  "ĠZionism": 43256,
  "ĠZionist": 34387,
  "ĠZone": 10351,
  "ĠZub": 30143,
  "Ġa": 10,
  "Ġab": 4091,
  "Ġabandon": 12506,
  "Ġabandoned": 6978,
  "Ġabandonment": 34465,
  "Ġabdomen": 28398,
  "Ġabduct": 28600,
  "Ġabducted": 18782,
  "Ġabduction": 24594,
  "Ġaber": 17785,
  "Ġabhor": 35350,
  "Ġabide": 22344,
  "Ġabiding": 34900,
  "Ġabilities": 11360,
  "Ġability": 1460,
  "Ġabl": 32573,
  "Ġable": 441,
  "Ġabnormal": 27034,
  "Ġaboard": 10009,
  "Ġabolish": 31165,
  "Ġabolished": 33110,
  "Ġabolition": 34117,
  "Ġabortion": 6428,
  "Ġabortions": 17600,
  "Ġabout": 59,
  "Ġabove": 1065,
  "Ġabroad": 5358,
  "Ġabruptly": 18489,
  "Ġabs": 15428,
  "Ġabsence": 5171,
  "Ġabsolute": 7833,
  "Ġabsolutely": 3668,
  "Ġabst": 22182,
  "Ġabsurd": 16091,
  "Ġabundance": 18225,
  "Ġabuse": 2134,
  "Ġabused": 9441,
  "Ġabuser": 36737,
  "Ġabusers": 31292,
  "Ġabuses": 13052,
  "Ġabusing": 16754,
  "Ġabusive": 14202,
  "Ġac": 4285,
  "Ġacademic": 5286,
  "Ġacademics": 16839,
  "Ġacademy": 11756,
  "Ġacc": 7678,
  "Ġaccelerate": 10107,
  "Ġaccelerated": 13072,
  "Ġaccelerating": 17604,
  "Ġaccept": 3264,
  "Ġacceptable": 9796,
  "Ġaccepted": 3903,
  "Ġaccepting": 8394,
  "Ġaccepts": 14564,
  "Ġaccess": 899,
  "Ġaccessed": 10763,
  "Ġaccessible": 6500,
  "Ġaccessing": 13655,
  "Ġaccident": 3213,
  "Ġaccidental": 18305,
  "Ġaccidentally": 13636,
  "Ġaccol": 19946,
  "Ġaccommodate": 9824,
  "Ġaccommodation": 11607,
  "Ġaccompan": 38963,
  "Ġaccompanied": 7513,
  "Ġaccompany": 20453,
  "Ġaccompanying": 14539,
  "Ġaccompl": 17872,
  "Ġaccomplish": 11829,
  "Ġaccomplished": 9370,
  "Ġaccord": 10170,
  "Ġaccordance": 10753,
  "Ġaccording": 309,
  "Ġaccordingly": 14649,
  "Ġaccount": 1316,
  "Ġaccountability": 9563,
  "Ġaccountable": 8943,
  "Ġaccounting": 6846,
  "Ġaccounts": 2349,
  "Ġaccumulate": 29196,
  "Ġaccumulated": 15323,
  "Ġaccuracy": 8611,
  "Ġaccurate": 6030,
  "Ġaccurately": 12775,
  "Ġaccus": 23123,
  "Ġaccusation": 17984,
  "Ġaccusations": 6124,
  "Ġaccuse": 15311,
  "Ġaccused": 1238,
  "Ġaccuser": 25506,
  "Ġaccuses": 18519,
  "Ġaccusing": 8601,
  "Ġaccustomed": 21090,
  "Ġace": 9837,
  "Ġachieve": 3042,
  "Ġachieved": 4824,
  "Ġachievement": 8312,
  "Ġachievements": 9270,
  "Ġachieving": 9499,
  "Ġacknowledge": 9630,
  "Ġacknowledged": 5055,
  "Ġacknowledgement": 32068,
  "Ġacknowledges": 17748,
  "Ġacknowledging": 17790,
  "Ġacknowledgment": 38169,
  "Ġacoustic": 21979,
  "Ġacquaintance": 33143,
  "Ġacquaintances": 37069,
  "Ġacquire": 6860,
  "Ġacquired": 3566,
  "Ġacquiring": 6819,
  "Ġacquisition": 3857,
  "Ġacquitted": 17871,
  "Ġacronym": 29703,
  "Ġacross": 420,
  "Ġact": 1760,
  "Ġacted": 8337,
  "Ġacting": 3501,
  "Ġaction": 814,
  "Ġactions": 2163,
  "Ġactivate": 22284,
  "Ġactive": 2171,
  "Ġactively": 7313,
  "Ġactivism": 16696,
  "Ġactivist": 6024,
  "Ġactivists": 4826,
  "Ġactivities": 1713,
  "Ġactivity": 1940,
  "Ġactor": 2701,
  "Ġactors": 5552,
  "Ġactresses": 21578,
  "Ġacts": 4504,
  "Ġactual": 3031,
  "Ġactually": 888,
  "Ġacute": 13827,
  "Ġad": 2329,
  "Ġadam": 40587,
  "Ġadamant": 22668,
  "Ġadaptation": 14082,
  "Ġadd": 1606,
  "Ġadded": 355,
  "Ġadding": 1271,
  "Ġaddition": 1285,
  "Ġadditional": 943,
  "Ġaddress": 1100,
  "Ġaddressed": 4873,
  "Ġaddresses": 8480,
  "Ġaddressing": 6477,
  "Ġadds": 3639,
  "Ġadequately": 17327,
  "Ġadhere": 20696,
  "Ġadjacent": 12142,
  "Ġadjud": 25536,
  "Ġadm": 20087,
  "Ġadmin": 28665,
  "Ġadministered": 16556,
  "Ġadministering": 33742,
  "Ġadministration": 942,
  "Ġadministrations": 20543,
  "Ġadministrative": 6833,
  "Ġadministrator": 11417,
  "Ġadministrators": 11976,
  "Ġadmiration": 24287,
  "Ġadmired": 22610,
  "Ġadmission": 7988,
  "Ġadmit": 8109,
  "Ġadmits": 9113,
  "Ġadmitted": 2641,
  "Ġadmitting": 13874,
  "Ġadmon": 32445,
  "Ġadopt": 7581,
  "Ġadopted": 5091,
  "Ġadopting": 15059,
  "Ġads": 5814,
  "Ġadul": 42146,
  "Ġadult": 4194,
  "Ġadultery": 42136,
  "Ġadults": 3362,
  "Ġadvance": 3316,
  "Ġadvanced": 3319,
  "Ġadvancement": 19026,
  "Ġadvances": 9766,
  "Ġadvancing": 11511,
  "Ġadvantage": 2093,
  "Ġadvantages": 12340,
  "Ġadversaries": 27164,
  "Ġadversary": 32714,
  "Ġadverse": 12661,
  "Ġadvertising": 4579,
  "Ġadvice": 2949,
  "Ġadvise": 12922,
  "Ġadvised": 5578,
  "Ġadviser": 4988,
  "Ġadvisers": 9273,
  "Ġadvises": 18192,
  "Ġadvising": 16442,
  "Ġadvisor": 11220,
  "Ġadvisors": 18727,
  "Ġadvisory": 7640,
  "Ġadvocate": 7156,
  "Ġadvocated": 20300,
  "Ġadvocates": 7039,
  "Ġadvocating": 18060,
  "Ġaerial": 14278,
  "Ġaerospace": 15064,
  "Ġaf": 9724,
  "Ġaff": 11129,
  "Ġaffair": 7226,
  "Ġaffairs": 5185,
  "Ġaffect": 3327,
  "Ġaffected": 2132,
  "Ġaffecting": 7920,
  "Ġaffection": 15955,
  "Ġaffects": 8561,
  "Ġaffidav": 41119,
  "Ġaffidavit": 12753,
  "Ġaffiliate": 10515,
  "Ġaffiliated": 13778,
  "Ġaffiliation": 23114,
  "Ġaffirm": 31040,
  "Ġaffirmative": 33003,
  "Ġaffirmed": 13935,
  "Ġafford": 4960,
  "Ġafloat": 26555,
  "Ġaforementioned": 15785,
  "Ġafraid": 6023,
  "Ġafter": 71,
  "Ġaftermath": 9123,
  "Ġafternoon": 1390,
  "Ġafterwards": 11795,
  "Ġag": 5951,
  "Ġagain": 456,
  "Ġagainst": 136,
  "Ġage": 1046,
  "Ġaged": 5180,
  "Ġagencies": 2244,
  "Ġagency": 1218,
  "Ġagenda": 4026,
  "Ġagendas": 30490,
  "Ġagent": 2936,
  "Ġagents": 3525,
  "Ġages": 4864,
  "Ġagg": 28940,
  "Ġaggravated": 10040,
  "Ġaggress": 29593,
  "Ġaggression": 14227,
  "Ġaggressive": 4353,
  "Ġaggressively": 11907,
  "Ġago": 536,
  "Ġagon": 27497,
  "Ġagony": 32248,
  "Ġagree": 2854,
  "Ġagreed": 1507,
  "Ġagreeing": 14176,
  "Ġagreement": 1288,
  "Ġagreements": 5983,
  "Ġagrees": 11687,
  "Ġagricultural": 7119,
  "Ġagriculture": 6300,
  "Ġahead": 789,
  "Ġaid": 2887,
  "Ġaide": 9498,
  "Ġaided": 19472,
  "Ġaides": 10049,
  "Ġaiding": 26616,
  "Ġail": 34712,
  "Ġaim": 4374,
  "Ġaimed": 3448,
  "Ġaims": 5026,
  "Ġain": 18212,
  "Ġair": 935,
  "Ġairborne": 28935,
  "Ġaircraft": 3054,
  "Ġaired": 10843,
  "Ġairing": 19822,
  "Ġairplane": 16847,
  "Ġairport": 3062,
  "Ġairports": 9651,
  "Ġairspace": 25260,
  "Ġak": 18735,
  "Ġaka": 19056,
  "Ġal": 1076,
  "Ġalarm": 8054,
  "Ġalarming": 16156,
  "Ġalarms": 22797,
  "Ġalbeit": 13176,
  "Ġalbum": 2642,
  "Ġalcohol": 3766,
  "Ġalert": 5439,
  "Ġalerted": 14588,
  "Ġalerts": 5431,
  "Ġalien": 13058,
  "Ġalienation": 42157,
  "Ġaliens": 20739,
  "Ġalign": 12432,
  "Ġaligned": 14485,
  "Ġalike": 9829,
  "Ġalive": 4299,
  "Ġall": 70,
  "Ġallegation": 10069,
  "Ġallegations": 1857,
  "Ġallege": 16336,
  "Ġalleged": 1697,
  "Ġallegedly": 2346,
  "Ġalleges": 11413,
  "Ġalleging": 11537,
  "Ġalliance": 6529,
  "Ġallied": 18668,
  "Ġallies": 4181,
  "Ġallocated": 12971,
  "Ġallocation": 12278,
  "Ġallotted": 28676,
  "Ġallow": 1157,
  "Ġallowance": 19488,
  "Ġallowed": 1220,
  "Ġallowing": 2455,
  "Ġallows": 2386,
  "Ġalluded": 31531,
  "Ġally": 7564,
  "Ġalmost": 818,
  "Ġalone": 1937,
  "Ġalong": 552,
  "Ġalongside": 2863,
  "Ġaloud": 31205,
  "Ġalready": 416,
  "Ġalso": 67,
  "Ġalt": 11838,
  "Ġaltar": 30449,
  "Ġalter": 11330,
  "Ġaltercation": 16678,
  "Ġaltered": 15992,
  "Ġaltering": 30341,
  "Ġalternative": 3626,
  "Ġalternatively": 42704,
  "Ġalternatives": 10514,
  "Ġalters": 43093,
  "Ġalthough": 1712,
  "Ġaltogether": 11807,
  "Ġalways": 460,
  "Ġam": 524,
  "Ġamassed": 21812,
  "Ġamazing": 2770,
  "Ġamb": 13569,
  "Ġambassador": 6499,
  "Ġambassadors": 22440,
  "Ġambiguity": 35566,
  "Ġambiguous": 33406,
  "Ġambitions": 12294,
  "Ġambulance": 9121,
  "Ġamen": 31606,
  "Ġamend": 19338,
  "Ġamended": 13522,
  "Ġamendment": 8322,
  "Ġamendments": 13037,
  "Ġamid": 2876,
  "Ġammo": 41346,
  "Ġammunition": 12691,
  "Ġamnesty": 23306,
  "Ġamong": 566,
  "Ġamongst": 9783,
  "Ġamount": 1280,
  "Ġamounted": 16608,
  "Ġamounts": 5353,
  "Ġample": 14602,
  "Ġamplified": 32755,
  "Ġamplify": 34913,
  "Ġamput": 29327,
  "Ġamusing": 31236,
  "Ġan": 41,
  "Ġanal": 26363,
  "Ġanalogy": 33460,
  "Ġanalyse": 28399,
  "Ġanalysis": 1966,
  "Ġanalyst": 2066,
  "Ġanalysts": 1066,
  "Ġanalytical": 23554,
  "Ġanalyze": 11526,
  "Ġanalyzed": 13773,
  "Ġanalyzing": 18999,
  "Ġanarchist": 44771,
  "Ġanarchists": 45232,
  "Ġanarchy": 40445,
  "Ġancestors": 22519,
  "Ġanchor": 11864,
  "Ġancient": 8178,
  "Ġand": 8,
  "Ġanew": 36278,
  "Ġangel": 20285,
  "Ġangels": 30859,
  "Ġanger": 6378,
  "Ġangles": 19811,
  "Ġangrily": 30302,
  "Ġangry": 5800,
  "Ġangst": 33010,
  "Ġanguish": 32446,
  "Ġanimal": 3477,
  "Ġanimals": 3122,
  "Ġanimated": 12847,
  "Ġanimosity": 34351,
  "Ġann": 9915,
  "Ġannex": 34611,
  "Ġannihil": 42316,
  "Ġannihilation": 43029,
  "Ġanniversary": 4038,
  "Ġannounce": 4659,
  "Ġannounced": 585,
  "Ġannouncement": 2443,
  "Ġannouncing": 7106,
  "Ġannoy": 36074,
  "Ġannoying": 19887,
  "Ġannual": 1013,
  "Ġannually": 6333,
  "Ġanomalies": 36071,
  "Ġanonymity": 7901,
  "Ġanonymous": 8466,
  "Ġanonymously": 20797,
  "Ġanother": 277,
  "Ġanswer": 1948,
  "Ġanswered": 7173,
  "Ġanswering": 15635,
  "Ġanswers": 5274,
  "Ġant": 9876,
  "Ġantagon": 32726,
  "Ġanti": 1475,
  "Ġantibiotic": 25465,
  "Ġantibiotics": 16674,
  "Ġantic": 38189,
  "Ġanticipate": 9503,
  "Ġanticipated": 5291,
  "Ġanticipation": 14714,
  "Ġantics": 24728,
  "Ġantis": 32694,
  "Ġantit": 38000,
  "Ġanx": 27442,
  "Ġanxiety": 6882,
  "Ġanxious": 13473,
  "Ġany": 143,
  "Ġanybody": 5670,
  "Ġanymore": 5988,
  "Ġanyone": 1268,
  "Ġanything": 932,
  "Ġanytime": 10677,
  "Ġanyway": 6992,
  "Ġanywhere": 4558,
  "Ġap": 6256,
  "Ġapart": 4102,
  "Ġapartheid": 25329,
  "Ġapartment": 3537,
  "Ġapartments": 10867,
  "Ġapiece": 14871,
  "Ġapocalyptic": 39285,
  "Ġapolog": 23842,
  "Ġapologised": 19366,
  "Ġapologize": 12844,
  "Ġapologized": 11184,
  "Ġapologizing": 31216,
  "Ġapology": 9664,
  "Ġapost": 39070,
  "Ġapp": 1553,
  "Ġapparatus": 26529,
  "Ġapparent": 5890,
  "Ġapparently": 4100,
  "Ġappe": 44151,
  "Ġappeal": 2868,
  "Ġappealed": 9826,
  "Ġappealing": 9364,
  "Ġappeals": 7688,
  "Ġappear": 2082,
  "Ġappearance": 2772,
  "Ġappearances": 4961,
  "Ġappeared": 1382,
  "Ġappearing": 8165,
  "Ġappears": 2092,
  "Ġappease": 32955,
  "Ġappell": 44361,
  "Ġappellate": 28500,
  "Ġappet": 24959,
  "Ġappetite": 11037,
  "Ġapplaud": 19477,
  "Ġapplause": 17288,
  "Ġapples": 20150,
  "Ġapplicable": 10404,
  "Ġapplication": 2502,
  "Ġapplications": 2975,
  "Ġapplied": 5049,
  "Ġapplies": 11459,
  "Ġapply": 3253,
  "Ġapplying": 9889,
  "Ġappoint": 9653,
  "Ġappointed": 3873,
  "Ġappointing": 25877,
  "Ġappointment": 4916,
  "Ġappointments": 11076,
  "Ġappreci": 14137,
  "Ġappreciate": 5478,
  "Ġappreciated": 10874,
  "Ġappreciation": 9819,
  "Ġapprehended": 21539,
  "Ġapprehens": 33655,
  "Ġappro": 44766,
  "Ġapproach": 1548,
  "Ġapproached": 5508,
  "Ġapproaches": 8369,
  "Ġapproaching": 8955,
  "Ġappropriate": 3901,
  "Ġappropriately": 16574,
  "Ġapproval": 2846,
  "Ġapprove": 7244,
  "Ġapproved": 2033,
  "Ġapproves": 28634,
  "Ġapproving": 20499,
  "Ġapproximate": 32161,
  "Ġapproximately": 2219,
  "Ġapt": 23744,
  "Ġaptly": 34155,
  "Ġarbit": 21552,
  "Ġarbitrarily": 40165,
  "Ġarbitrary": 23501,
  "Ġarch": 9599,
  "Ġarchitect": 12970,
  "Ġarchitects": 20179,
  "Ġardent": 34085,
  "Ġardu": 34602,
  "Ġare": 32,
  "Ġarea": 443,
  "Ġareas": 911,
  "Ġaren": 2025,
  "Ġarena": 8410,
  "Ġarenas": 33322,
  "Ġarg": 29480,
  "Ġarguably": 10522,
  "Ġargue": 5848,
  "Ġargued": 3811,
  "Ġargues": 10648,
  "Ġarguing": 7594,
  "Ġargument": 4795,
  "Ġarguments": 7576,
  "Ġarise": 16072,
  "Ġarisen": 38799,
  "Ġarises": 28125,
  "Ġarising": 21005,
  "Ġarm": 3124,
  "Ġarmed": 3234,
  "Ġarming": 31513,
  "Ġarmor": 29828,
  "Ġarms": 3701,
  "Ġarmy": 3835,
  "Ġarose": 22465,
  "Ġaround": 198,
  "Ġarra": 14108,
  "Ġarrange": 17999,
  "Ġarranged": 12121,
  "Ġarrangement": 9804,
  "Ġarrangements": 7863,
  "Ġarranging": 28384,
  "Ġarray": 8932,
  "Ġarrest": 2237,
  "Ġarrested": 1128,
  "Ġarresting": 22534,
  "Ġarrests": 7102,
  "Ġarrival": 5237,
  "Ġarrivals": 17461,
  "Ġarrive": 5240,
  "Ġarrived": 2035,
  "Ġarrives": 8842,
  "Ġarriving": 7789,
  "Ġarrog": 46553,
  "Ġarrogance": 32818,
  "Ġarrogant": 30967,
  "Ġarrows": 36486,
  "Ġarson": 18949,
  "Ġart": 1808,
  "Ġartic": 33087,
  "Ġarticle": 1566,
  "Ġarticles": 7201,
  "Ġarticulate": 27872,
  "Ġartificial": 7350,
  "Ġartist": 3025,
  "Ġartistic": 11419,
  "Ġarts": 5444,
  "Ġas": 25,
  "Ġasc": 24690,
  "Ġascended": 41750,
  "Ġashamed": 20085,
  "Ġaside": 4364,
  "Ġask": 1394,
  "Ġasked": 553,
  "Ġasking": 1996,
  "Ġasks": 6990,
  "Ġaspect": 6659,
  "Ġaspects": 5894,
  "Ġaspirations": 16275,
  "Ġass": 8446,
  "Ġassass": 39257,
  "Ġassassin": 38109,
  "Ġassassinate": 40205,
  "Ġassassinated": 31762,
  "Ġassassination": 16351,
  "Ġassault": 2080,
  "Ġassaulted": 8057,
  "Ġassaulting": 13511,
  "Ġassaults": 15624,
  "Ġassemble": 24054,
  "Ġassembled": 14525,
  "Ġassemblies": 32443,
  "Ġassembly": 6559,
  "Ġassert": 18088,
  "Ġasserted": 17021,
  "Ġasserting": 29855,
  "Ġassertion": 19395,
  "Ġassertions": 29947,
  "Ġasses": 44508,
  "Ġassessing": 16629,
  "Ġassessment": 4990,
  "Ġasset": 3440,
  "Ġassets": 1781,
  "Ġassigned": 5530,
  "Ġassignment": 11717,
  "Ġassignments": 21350,
  "Ġassimil": 39842,
  "Ġassist": 3991,
  "Ġassistance": 3485,
  "Ġassistant": 3167,
  "Ġassisted": 9728,
  "Ġassisting": 13390,
  "Ġassociate": 6754,
  "Ġassociated": 3059,
  "Ġassociates": 11904,
  "Ġassociation": 5259,
  "Ġassume": 6876,
  "Ġassumed": 9159,
  "Ġassumes": 20573,
  "Ġassuming": 12483,
  "Ġassumption": 15480,
  "Ġassumptions": 10576,
  "Ġassurance": 15492,
  "Ġassurances": 19820,
  "Ġassure": 14144,
  "Ġassured": 7189,
  "Ġassures": 36008,
  "Ġast": 12976,
  "Ġaster": 44063,
  "Ġasteroid": 26236,
  "Ġasteroids": 39873,
  "Ġastonishing": 19720,
  "Ġastronomer": 40369,
  "Ġastronomers": 30339,
  "Ġastronomical": 34241,
  "Ġastronomy": 36095,
  "Ġasylum": 6702,
  "Ġat": 23,
  "Ġathlete": 8340,
  "Ġatmosphere": 5466,
  "Ġatmospheric": 24486,
  "Ġatop": 12619,
  "Ġatro": 35790,
  "Ġatroc": 38743,
  "Ġatrocities": 21692,
  "Ġatt": 15095,
  "Ġattaches": 40459,
  "Ġattachment": 26350,
  "Ġattachments": 30565,
  "Ġattack": 908,
  "Ġattacked": 4487,
  "Ġattacker": 12082,
  "Ġattackers": 13463,
  "Ġattacking": 6666,
  "Ġattacks": 1912,
  "Ġattained": 32069,
  "Ġattempt": 2120,
  "Ġattempted": 3751,
  "Ġattempting": 6475,
  "Ġattempts": 3881,
  "Ġattend": 2725,
  "Ġattendance": 6856,
  "Ġattended": 2922,
  "Ġattendees": 10703,
  "Ġattending": 5190,
  "Ġattends": 16298,
  "Ġattention": 1503,
  "Ġattitude": 6784,
  "Ġattitudes": 15764,
  "Ġattorney": 1921,
  "Ġattorneys": 6386,
  "Ġattracted": 7671,
  "Ġattracting": 13224,
  "Ġattraction": 13003,
  "Ġattractive": 6043,
  "Ġattribute": 21643,
  "Ġattributed": 9702,
  "Ġaud": 9818,
  "Ġaudible": 37621,
  "Ġaudience": 2437,
  "Ġaudio": 6086,
  "Ġaudit": 8491,
  "Ġauditory": 44630,
  "Ġaur": 36032,
  "Ġaura": 34705,
  "Ġaust": 28410,
  "Ġausterity": 15498,
  "Ġaut": 7241,
  "Ġauthentic": 12757,
  "Ġauthenticity": 21341,
  "Ġauthor": 2730,
  "Ġauthored": 26329,
  "Ġauthoritarian": 19574,
  "Ġauthoritative": 34502,
  "Ġauthorities": 1247,
  "Ġauthority": 3446,
  "Ġauthorization": 19234,
  "Ġauthorize": 29080,
  "Ġauthorized": 8672,
  "Ġauthorizing": 36103,
  "Ġauthors": 7601,
  "Ġauto": 4485,
  "Ġautomatic": 8408,
  "Ġautomatically": 6885,
  "Ġautopsy": 15103,
  "Ġauxiliary": 34590,
  "Ġav": 6402,
  "Ġavail": 22345,
  "Ġavailable": 577,
  "Ġaven": 38796,
  "Ġavenue": 24797,
  "Ġavenues": 19922,
  "Ġaverage": 674,
  "Ġavid": 20137,
  "Ġavoid": 1877,
  "Ġavoidance": 29751,
  "Ġavoided": 9710,
  "Ġavoiding": 11473,
  "Ġavoids": 29879,
  "Ġaw": 19267,
  "Ġawaited": 21146,
  "Ġawaiting": 10254,
  "Ġawaits": 22512,
  "Ġawake": 24628,
  "Ġawaken": 43265,
  "Ġaward": 2354,
  "Ġawarded": 4241,
  "Ġawards": 4188,
  "Ġaware": 2542,
  "Ġawareness": 4199,
  "Ġaway": 409,
  "Ġawful": 11522,
  "Ġawoken": 46227,
  "Ġaxis": 31799,
  "Ġay": 16749,
  "Ġb": 741,
  "Ġbab": 30301,
  "Ġbabies": 7272,
  "Ġbaby": 1928,
  "Ġback": 124,
  "Ġbackdrop": 11379,
  "Ġbacked": 4094,
  "Ġbackers": 20637,
  "Ġbackground": 3618,
  "Ġbackgrounds": 14218,
  "Ġbacking": 6027,
  "Ġbacklash": 10279,
  "Ġbacklog": 14846,
  "Ġbacks": 7314,
  "Ġbackup": 8010,
  "Ġbackwards": 19312,
  "Ġbackyard": 12284,
  "Ġbacon": 18599,
  "Ġbacteria": 9436,
  "Ġbacterial": 25738,
  "Ġbad": 1099,
  "Ġbadge": 22394,
  "Ġbadly": 7340,
  "Ġbaff": 33139,
  "Ġbag": 3298,
  "Ġbags": 5565,
  "Ġbail": 4852,
  "Ġbakery": 22428,
  "Ġbalance": 2394,
  "Ġbalanced": 9320,
  "Ġbalcony": 19988,
  "Ġbalk": 31110,
  "Ġball": 1011,
  "Ġballistic": 11117,
  "Ġballoon": 14930,
  "Ġballoons": 22475,
  "Ġballot": 5250,
  "Ġballots": 10527,
  "Ġban": 2020,
  "Ġbananas": 31130,
  "Ġband": 1971,
  "Ġbanished": 41344,
  "Ġbank": 827,
  "Ġbanking": 3454,
  "Ġbankrupt": 19117,
  "Ġbankruptcy": 7388,
  "Ġbanks": 1520,
  "Ġbanned": 4968,
  "Ġbanner": 12773,
  "Ġbanning": 13241,
  "Ġbaptized": 42836,
  "Ġbar": 2003,
  "Ġbarb": 43947,
  "Ġbarbar": 41503,
  "Ġbare": 10905,
  "Ġbarely": 6254,
  "Ġbargain": 14648,
  "Ġbarrage": 23080,
  "Ġbarred": 12678,
  "Ġbarrel": 5484,
  "Ġbarrels": 6745,
  "Ġbarric": 19007,
  "Ġbarrier": 9639,
  "Ġbarriers": 7926,
  "Ġbarring": 20108,
  "Ġbars": 5692,
  "Ġbas": 11909,
  "Ġbase": 1542,
  "Ġbased": 716,
  "Ġbaseline": 18043,
  "Ġbases": 7531,
  "Ġbasic": 3280,
  "Ġbasically": 5072,
  "Ġbasics": 17293,
  "Ġbasis": 1453,
  "Ġbast": 25753,
  "Ġbat": 6325,
  "Ġbatch": 14398,
  "Ġbathing": 30260,
  "Ġbats": 8142,
  "Ġbatter": 15867,
  "Ġbattery": 3822,
  "Ġbattle": 2168,
  "Ġbattleground": 29783,
  "Ġbattles": 9531,
  "Ġbattling": 8073,
  "Ġbe": 28,
  "Ġbeach": 4105,
  "Ġbear": 4649,
  "Ġbearded": 38048,
  "Ġbears": 10361,
  "Ġbeast": 22067,
  "Ġbeasts": 39498,
  "Ġbeat": 1451,
  "Ġbeaten": 6432,
  "Ġbeating": 4108,
  "Ġbeautiful": 2721,
  "Ġbeauty": 4002,
  "Ġbecame": 1059,
  "Ġbecause": 142,
  "Ġbecome": 555,
  "Ġbecomes": 3374,
  "Ġbecoming": 1959,
  "Ġbed": 3267,
  "Ġbedroom": 8140,
  "Ġbeds": 11646,
  "Ġbeef": 6829,
  "Ġbeen": 57,
  "Ġbefore": 137,
  "Ġbeforehand": 23882,
  "Ġbefriend": 35199,
  "Ġbeg": 21422,
  "Ġbegan": 880,
  "Ġbegged": 29149,
  "Ġbegging": 22901,
  "Ġbegin": 1642,
  "Ġbeginning": 1786,
  "Ġbegins": 3772,
  "Ġbegs": 33337,
  "Ġbegun": 5812,
  "Ġbehalf": 4137,
  "Ġbehave": 18871,
  "Ġbehaved": 30758,
  "Ġbehaving": 29744,
  "Ġbehavior": 3650,
  "Ġbehaviors": 17156,
  "Ġbehaviour": 5759,
  "Ġbehaviours": 30723,
  "Ġbehind": 639,
  "Ġbehold": 29308,
  "Ġbeing": 145,
  "Ġbeings": 14766,
  "Ġbel": 12138,
  "Ġbelief": 6563,
  "Ġbeliefs": 9734,
  "Ġbelieve": 679,
  "Ġbelieved": 2047,
  "Ġbelievers": 29446,
  "Ġbelieves": 2046,
  "Ġbelieving": 13294,
  "Ġbell": 10342,
  "Ġbellig": 35756,
  "Ġbelong": 9943,
  "Ġbelonged": 14574,
  "Ġbelonging": 11441,
  "Ġbelongings": 18750,
  "Ġbelongs": 12918,
  "Ġbeloved": 8055,
  "Ġbelow": 874,
  "Ġbelts": 20252,
  "Ġbench": 3638,
  "Ġbenchmark": 5437,
  "Ġbend": 20789,
  "Ġbeneath": 11352,
  "Ġbenef": 19018,
  "Ġbeneficial": 10142,
  "Ġbeneficiary": 23350,
  "Ġbenefit": 1796,
  "Ġbenefited": 11916,
  "Ġbenefiting": 17562,
  "Ġbenefits": 1795,
  "Ġbenign": 27197,
  "Ġbent": 18822,
  "Ġbes": 9988,
  "Ġbeside": 13276,
  "Ġbesides": 12035,
  "Ġbest": 275,
  "Ġbestowed": 33833,
  "Ġbet": 5673,
  "Ġbetray": 32263,
  "Ġbetrayal": 26760,
  "Ġbetrayed": 26913,
  "Ġbets": 12566,
  "Ġbetter": 357,
  "Ġbetween": 227,
  "Ġbeverage": 12525,
  "Ġbeyond": 1684,
  "Ġbias": 9415,
  "Ġbiased": 21099,
  "Ġbiases": 31681,
  "Ġbiblical": 30038,
  "Ġbid": 2311,
  "Ġbids": 10740,
  "Ġbig": 380,
  "Ġbigger": 2671,
  "Ġbiggest": 934,
  "Ġbigotry": 25102,
  "Ġbilateral": 9526,
  "Ġbill": 1087,
  "Ġbillboard": 29621,
  "Ġbillion": 325,
  "Ġbillionaire": 9479,
  "Ġbillions": 6685,
  "Ġbills": 4033,
  "Ġbin": 6870,
  "Ġbind": 23379,
  "Ġbinding": 17014,
  "Ġbiography": 24613,
  "Ġbiological": 12243,
  "Ġbiomedical": 35241,
  "Ġbipartisan": 10094,
  "Ġbirth": 3113,
  "Ġbirthday": 4115,
  "Ġbishop": 23766,
  "Ġbishops": 19929,
  "Ġbit": 828,
  "Ġbites": 21482,
  "Ġbits": 15239,
  "Ġbitter": 10513,
  "Ġbizarre": 11676,
  "Ġbl": 3089,
  "Ġblack": 909,
  "Ġblackmail": 23616,
  "Ġblackout": 32010,
  "Ġblacks": 20465,
  "Ġblame": 4887,
  "Ġblamed": 6102,
  "Ġblames": 23079,
  "Ġblaming": 15249,
  "Ġblank": 15818,
  "Ġblanket": 14165,
  "Ġblasp": 44605,
  "Ġblasphemy": 33849,
  "Ġblast": 7814,
  "Ġblasted": 14248,
  "Ġblasting": 26831,
  "Ġblatant": 26248,
  "Ġblatantly": 35519,
  "Ġble": 13819,
  "Ġbleak": 23530,
  "Ġbleeding": 13162,
  "Ġbless": 22212,
  "Ġblessed": 12230,
  "Ġblessing": 14164,
  "Ġblessings": 27481,
  "Ġblew": 10879,
  "Ġblight": 29694,
  "Ġblind": 7709,
  "Ġblinded": 40094,
  "Ġblinding": 43279,
  "Ġblindly": 39458,
  "Ġblindness": 35148,
  "Ġblinked": 45652,
  "Ġblinking": 42885,
  "Ġbliss": 30299,
  "Ġbloc": 7667,
  "Ġblock": 1803,
  "Ġblocked": 4953,
  "Ġblocking": 8890,
  "Ġblog": 5059,
  "Ġblogger": 21329,
  "Ġbloggers": 25007,
  "Ġblogs": 22064,
  "Ġblood": 1925,
  "Ġbloodshed": 27801,
  "Ġbloody": 13629,
  "Ġbloss": 25734,
  "Ġblow": 4627,
  "Ġblowing": 13897,
  "Ġblown": 12315,
  "Ġblue": 2440,
  "Ġblueprint": 21057,
  "Ġblunt": 18720,
  "Ġbluntly": 36389,
  "Ġblurred": 34186,
  "Ġblurry": 40427,
  "Ġbo": 5276,
  "Ġboard": 792,
  "Ġboarded": 22250,
  "Ġboarding": 16011,
  "Ġboards": 6904,
  "Ġboasted": 21078,
  "Ġboasting": 24764,
  "Ġboasts": 10902,
  "Ġboat": 4293,
  "Ġboats": 8934,
  "Ġbodies": 3738,
  "Ġbodily": 18892,
  "Ġbody": 809,
  "Ġbogus": 28007,
  "Ġbol": 24724,
  "Ġbold": 7457,
  "Ġboldly": 34520,
  "Ġbolster": 12397,
  "Ġbolstered": 22689,
  "Ġbolts": 36668,
  "Ġbomb": 4840,
  "Ġbombed": 28293,
  "Ġbomber": 15731,
  "Ġbombers": 20824,
  "Ġbombing": 10183,
  "Ġbombshell": 24332,
  "Ġbona": 33954,
  "Ġbond": 2175,
  "Ġbondage": 42330,
  "Ġbones": 12396,
  "Ġbonus": 7944,
  "Ġbook": 1040,
  "Ġbooked": 7512,
  "Ġbooks": 2799,
  "Ġboom": 8600,
  "Ġboost": 2501,
  "Ġbooster": 27028,
  "Ġboosting": 11606,
  "Ġboot": 9759,
  "Ġbooth": 13939,
  "Ġboots": 10317,
  "Ġborder": 1424,
  "Ġborders": 7562,
  "Ġbore": 18406,
  "Ġbored": 23809,
  "Ġborn": 2421,
  "Ġborne": 26531,
  "Ġborrow": 12152,
  "Ġborrowed": 18913,
  "Ġboss": 3504,
  "Ġbosses": 14063,
  "Ġbotched": 25576,
  "Ġboth": 258,
  "Ġbother": 15304,
  "Ġbothered": 18523,
  "Ġbothers": 38070,
  "Ġbottle": 7304,
  "Ġbottom": 2576,
  "Ġbought": 2162,
  "Ġbounced": 12407,
  "Ġbound": 8191,
  "Ġboundaries": 10156,
  "Ġbow": 7323,
  "Ġbowed": 30748,
  "Ġbox": 2233,
  "Ġboxes": 7644,
  "Ġboy": 2143,
  "Ġboycot": 29953,
  "Ġboycott": 13978,
  "Ġboyfriend": 6578,
  "Ġboys": 2786,
  "Ġbr": 5378,
  "Ġbracket": 16871,
  "Ġbrain": 2900,
  "Ġbranch": 6084,
  "Ġbranches": 9836,
  "Ġbrand": 1518,
  "Ġbranded": 12301,
  "Ġbras": 34904,
  "Ġbrass": 20535,
  "Ġbrave": 10025,
  "Ġbrazen": 27502,
  "Ġbre": 15549,
  "Ġbreach": 6999,
  "Ġbreaches": 16638,
  "Ġbreaching": 25600,
  "Ġbread": 8084,
  "Ġbreak": 1108,
  "Ġbreakdown": 9336,
  "Ġbreaking": 3433,
  "Ġbreaks": 6383,
  "Ġbreakthrough": 10118,
  "Ġbreast": 6181,
  "Ġbreath": 8016,
  "Ġbreathe": 14575,
  "Ġbrethren": 41673,
  "Ġbribe": 25677,
  "Ġbribery": 16854,
  "Ġbribes": 19426,
  "Ġbrick": 11225,
  "Ġbrid": 30987,
  "Ġbride": 15429,
  "Ġbridge": 4081,
  "Ġbrief": 4315,
  "Ġbriefed": 14589,
  "Ġbriefing": 7515,
  "Ġbriefings": 30032,
  "Ġbriefly": 7478,
  "Ġbriefs": 34672,
  "Ġbright": 4520,
  "Ġbrightest": 24188,
  "Ġbrightness": 27406,
  "Ġbrilliance": 28505,
  "Ġbrilliant": 6967,
  "Ġbrilliantly": 25530,
  "Ġbrim": 40773,
  "Ġbring": 836,
  "Ġbringing": 2406,
  "Ġbrings": 3291,
  "Ġbrink": 16686,
  "Ġbro": 11051,
  "Ġbroad": 4007,
  "Ġbroadcast": 2308,
  "Ġbroadcaster": 10901,
  "Ġbroadcasters": 25106,
  "Ġbroader": 5153,
  "Ġbroadly": 11237,
  "Ġbroke": 2263,
  "Ġbroken": 3187,
  "Ġbrokers": 13122,
  "Ġbrother": 2138,
  "Ġbrothers": 5396,
  "Ġbrought": 1146,
  "Ġbrushed": 23637,
  "Ġbrushing": 32669,
  "Ġbrutal": 8513,
  "Ġbrutality": 20509,
  "Ġbub": 23792,
  "Ġbuck": 13182,
  "Ġbud": 18464,
  "Ġbudget": 1229,
  "Ġbuff": 27793,
  "Ġbuild": 1119,
  "Ġbuilders": 21043,
  "Ġbuilding": 745,
  "Ġbuildings": 3413,
  "Ġbuilt": 1490,
  "Ġbul": 22382,
  "Ġbulk": 8533,
  "Ġbull": 8347,
  "Ġbulldo": 30292,
  "Ġbullet": 8894,
  "Ġbullets": 14006,
  "Ġbullied": 21745,
  "Ġbullies": 33969,
  "Ġbully": 23934,
  "Ġbullying": 11902,
  "Ġbump": 8792,
  "Ġbumper": 20314,
  "Ġbunch": 6900,
  "Ġbundle": 19489,
  "Ġbur": 12601,
  "Ġburd": 32875,
  "Ġburden": 6976,
  "Ġbureau": 12331,
  "Ġbureaucr": 38722,
  "Ġbureaucracy": 22077,
  "Ġbureaucratic": 28536,
  "Ġbureaucrats": 29725,
  "Ġburg": 18521,
  "Ġburger": 18079,
  "Ġburglary": 11910,
  "Ġburial": 17353,
  "Ġburied": 8203,
  "Ġburn": 7403,
  "Ġburned": 7685,
  "Ġburning": 6574,
  "Ġburns": 14827,
  "Ġburnt": 18698,
  "Ġburst": 10084,
  "Ġbury": 24569,
  "Ġbus": 2353,
  "Ġbuses": 8159,
  "Ġbush": 18080,
  "Ġbushes": 31248,
  "Ġbusiness": 265,
  "Ġbusinesses": 1252,
  "Ġbusinessman": 8950,
  "Ġbust": 11044,
  "Ġbusted": 26803,
  "Ġbusy": 3610,
  "Ġbut": 53,
  "Ġbutton": 6148,
  "Ġbuttons": 14893,
  "Ġbuy": 907,
  "Ġbuyers": 4859,
  "Ġbuying": 2159,
  "Ġbuzz": 8775,
  "Ġby": 30,
  "Ġbypass": 15037,
  "Ġc": 740,
  "Ġcab": 11148,
  "Ġcabal": 40695,
  "Ġcabin": 11657,
  "Ġcabinet": 5892,
  "Ġcable": 6129,
  "Ġcables": 19185,
  "Ġcac": 33624,
  "Ġcache": 30283,
  "Ġcad": 12260,
  "Ġcal": 13011,
  "Ġcalculated": 9658,
  "Ġcalculating": 29770,
  "Ġcalculations": 11840,
  "Ġcalendar": 7127,
  "Ġcalf": 16701,
  "Ġcaliber": 25735,
  "Ġcaliphate": 34708,
  "Ġcall": 486,
  "Ġcalled": 373,
  "Ġcalling": 1765,
  "Ġcalls": 1519,
  "Ġcalm": 6327,
  "Ġcalmly": 27035,
  "Ġcam": 11021,
  "Ġcame": 376,
  "Ġcamel": 35579,
  "Ġcamera": 2280,
  "Ġcameras": 4387,
  "Ġcamp": 2205,
  "Ġcampaign": 637,
  "Ġcampaigned": 17612,
  "Ġcampaigners": 21952,
  "Ġcampaigning": 12711,
  "Ġcampaigns": 6392,
  "Ġcamping": 16724,
  "Ġcamps": 7376,
  "Ġcampus": 2894,
  "Ġcampuses": 14339,
  "Ġcan": 64,
  "Ġcance": 21338,
  "Ġcancel": 10061,
  "Ġcanceled": 9491,
  "Ġcancellation": 16064,
  "Ġcancelled": 8102,
  "Ġcancer": 1668,
  "Ġcand": 23505,
  "Ġcandid": 14039,
  "Ġcandidacy": 17231,
  "Ġcandidate": 1984,
  "Ġcandidates": 2261,
  "Ġcandle": 20261,
  "Ġcannibal": 38267,
  "Ġcannon": 30941,
  "Ġcannot": 1395,
  "Ġcanon": 32839,
  "Ġcanonical": 45615,
  "Ġcans": 17029,
  "Ġcant": 17672,
  "Ġcapabilities": 5587,
  "Ġcapability": 9388,
  "Ġcapable": 4453,
  "Ġcapacities": 23549,
  "Ġcapacity": 2148,
  "Ġcapit": 31567,
  "Ġcapital": 812,
  "Ġcapitalism": 21314,
  "Ġcapitalist": 27703,
  "Ġcapitals": 31505,
  "Ġcapped": 10835,
  "Ġcapsule": 23143,
  "Ġcaptain": 3449,
  "Ġcaptains": 25043,
  "Ġcaption": 3747,
  "Ġcapture": 5604,
  "Ġcaptured": 4705,
  "Ġcapturing": 16153,
  "Ġcar": 512,
  "Ġcaravan": 15987,
  "Ġcarbon": 4363,
  "Ġcard": 1886,
  "Ġcardinal": 32533,
  "Ġcards": 3591,
  "Ġcare": 575,
  "Ġcared": 15732,
  "Ġcareer": 756,
  "Ġcareers": 8478,
  "Ġcareful": 7316,
  "Ġcarefully": 7015,
  "Ġcareless": 29399,
  "Ġcares": 14534,
  "Ġcaring": 10837,
  "Ġcarpet": 7986,
  "Ġcarried": 2584,
  "Ġcarriers": 9816,
  "Ġcarries": 5723,
  "Ġcarrot": 33129,
  "Ġcarry": 2324,
  "Ġcarrying": 3406,
  "Ġcars": 1677,
  "Ġcart": 9727,
  "Ġcartoon": 15800,
  "Ġcasc": 34455,
  "Ġcascade": 39718,
  "Ġcase": 403,
  "Ġcases": 1200,
  "Ġcash": 1055,
  "Ġcasino": 10297,
  "Ġcast": 2471,
  "Ġcasting": 11177,
  "Ġcasts": 28052,
  "Ġcasual": 9881,
  "Ġcasually": 26294,
  "Ġcat": 4758,
  "Ġcatalog": 19111,
  "Ġcatalogue": 29346,
  "Ġcatapult": 31009,
  "Ġcatastrophe": 21421,
  "Ġcatastrophic": 15532,
  "Ġcatch": 2916,
  "Ġcatching": 10205,
  "Ġcategor": 18072,
  "Ġcategories": 6363,
  "Ġcategorized": 31658,
  "Ġcategory": 4120,
  "Ġcathedral": 28457,
  "Ġcattle": 9440,
  "Ġcaucus": 17889,
  "Ġcaught": 2037,
  "Ġcause": 1303,
  "Ġcaused": 1726,
  "Ġcauses": 4685,
  "Ġcausing": 3735,
  "Ġcaution": 8038,
  "Ġcautioned": 13335,
  "Ġcave": 12742,
  "Ġce": 8635,
  "Ġcease": 14342,
  "Ġceased": 28990,
  "Ġcel": 15054,
  "Ġcelebr": 23517,
  "Ġcelebrate": 3379,
  "Ġcelebrated": 5417,
  "Ġcelebrating": 6146,
  "Ġcelebration": 4821,
  "Ġcelebrities": 8844,
  "Ġcelebrity": 6794,
  "Ġcell": 3551,
  "Ġcement": 10546,
  "Ġcens": 26489,
  "Ġcensor": 37375,
  "Ġcensored": 39692,
  "Ġcensorship": 23915,
  "Ġcent": 715,
  "Ġcenter": 1312,
  "Ġcentered": 14889,
  "Ġcenterpiece": 28478,
  "Ġcenters": 5228,
  "Ġcentral": 1353,
  "Ġcentrally": 37889,
  "Ġcentre": 2100,
  "Ġcentres": 7872,
  "Ġcentrif": 40564,
  "Ġcentrist": 24415,
  "Ġcents": 3205,
  "Ġcenturies": 11505,
  "Ġcentury": 3220,
  "Ġceremonies": 17290,
  "Ġceremony": 2844,
  "Ġcert": 21045,
  "Ġcertain": 1402,
  "Ġcertainly": 1819,
  "Ġcertainty": 15233,
  "Ġcertificate": 10921,
  "Ġcertified": 9785,
  "Ġcertify": 33446,
  "Ġcess": 40430,
  "Ġcf": 46470,
  "Ġch": 1855,
  "Ġcha": 23644,
  "Ġchain": 3206,
  "Ġchains": 9781,
  "Ġchair": 3428,
  "Ġchairman": 2243,
  "Ġchairs": 10826,
  "Ġchallenge": 1539,
  "Ġchallenged": 6835,
  "Ġchallenger": 15415,
  "Ġchallenges": 2019,
  "Ġchallenging": 4087,
  "Ġchamber": 8421,
  "Ġchambers": 16663,
  "Ġchampagne": 20422,
  "Ġchampion": 2234,
  "Ġchance": 778,
  "Ġchancellor": 18732,
  "Ġchances": 3255,
  "Ġchange": 464,
  "Ġchanged": 1714,
  "Ġchanges": 1022,
  "Ġchanging": 2992,
  "Ġchannel": 4238,
  "Ġchannels": 6237,
  "Ġchant": 26662,
  "Ġchanted": 23179,
  "Ġchanting": 21122,
  "Ġchaos": 7724,
  "Ġchaotic": 16529,
  "Ġchapter": 7285,
  "Ġchar": 16224,
  "Ġcharacter": 2048,
  "Ġcharacteristic": 26293,
  "Ġcharacteristics": 12720,
  "Ġcharacterize": 33776,
  "Ġcharacterized": 17407,
  "Ġcharge": 1427,
  "Ġcharged": 1340,
  "Ġcharges": 1103,
  "Ġcharging": 6489,
  "Ġcharity": 4440,
  "Ġchart": 5966,
  "Ġcharter": 9827,
  "Ġcharts": 12201,
  "Ġchase": 7859,
  "Ġchasing": 11277,
  "Ġchast": 32713,
  "Ġchat": 7359,
  "Ġche": 5851,
  "Ġcheap": 6162,
  "Ġcheating": 14153,
  "Ġcheck": 1649,
  "Ġchecked": 7869,
  "Ġcheckpoint": 21562,
  "Ġchecks": 6240,
  "Ġcheered": 18643,
  "Ġcheering": 16765,
  "Ġcheers": 20581,
  "Ġchemical": 4747,
  "Ġchemicals": 8321,
  "Ġcherished": 27252,
  "Ġchest": 7050,
  "Ġchewing": 35053,
  "Ġchickens": 21430,
  "Ġchief": 834,
  "Ġchiefly": 39266,
  "Ġchiefs": 15201,
  "Ġchild": 920,
  "Ġchildren": 408,
  "Ġchilling": 22577,
  "Ġchimpanzees": 44596,
  "Ġchip": 6638,
  "Ġcho": 14310,
  "Ġchoice": 2031,
  "Ġchoices": 5717,
  "Ġchoking": 26864,
  "Ġchoose": 2807,
  "Ġchooses": 19662,
  "Ġchoosing": 8348,
  "Ġchop": 27804,
  "Ġchorus": 19738,
  "Ġchose": 4689,
  "Ġchosen": 4986,
  "Ġchrome": 34605,
  "Ġchronic": 7642,
  "Ġchunks": 26521,
  "Ġchurch": 2352,
  "Ġchurches": 10550,
  "Ġchurn": 18209,
  "Ġcigar": 36978,
  "Ġcircle": 7922,
  "Ġcircles": 13820,
  "Ġcircular": 18629,
  "Ġcirculated": 18296,
  "Ġcirculating": 17215,
  "Ġcircumst": 42755,
  "Ġcircumstance": 24804,
  "Ġcircumstances": 4215,
  "Ġcircumvent": 29487,
  "Ġcircus": 20812,
  "Ġcit": 29403,
  "Ġcite": 22884,
  "Ġcited": 4418,
  "Ġcites": 20177,
  "Ġcities": 1947,
  "Ġciting": 4319,
  "Ġcitizen": 6239,
  "Ġcitizens": 2286,
  "Ġcity": 343,
  "Ġciv": 25604,
  "Ġcivic": 12452,
  "Ġcivil": 2366,
  "Ġcivilians": 6321,
  "Ġcivilization": 25492,
  "Ġcivilizations": 43054,
  "Ġcivilized": 38595,
  "Ġcl": 3741,
  "Ġclad": 27094,
  "Ġclaim": 2026,
  "Ġclaimants": 32921,
  "Ġclaimed": 1695,
  "Ġclaiming": 4564,
  "Ġclaims": 1449,
  "Ġclam": 24045,
  "Ġclamp": 24241,
  "Ġclandestine": 35146,
  "Ġclarification": 23764,
  "Ġclarified": 18135,
  "Ġclarify": 14246,
  "Ġclarity": 10498,
  "Ġclash": 6064,
  "Ġclashes": 10165,
  "Ġclass": 1380,
  "Ġclasses": 4050,
  "Ġclassic": 4187,
  "Ġclassified": 8967,
  "Ġclassmate": 27862,
  "Ġclassroom": 8171,
  "Ġclause": 13166,
  "Ġclauses": 30756,
  "Ġcle": 12479,
  "Ġclean": 2382,
  "Ġcleaning": 8143,
  "Ġcleans": 30317,
  "Ġclear": 699,
  "Ġclearance": 11855,
  "Ġcleared": 6049,
  "Ġclearer": 18618,
  "Ġclearly": 2563,
  "Ġclears": 30733,
  "Ġcler": 32391,
  "Ġclergy": 21064,
  "Ġcleric": 24105,
  "Ġclerics": 35627,
  "Ġclever": 13074,
  "Ġclick": 3753,
  "Ġclicked": 28551,
  "Ġclicks": 30106,
  "Ġclient": 3653,
  "Ġclients": 2539,
  "Ġcliff": 15344,
  "Ġclimate": 2147,
  "Ġclimb": 8264,
  "Ġclimbed": 7334,
  "Ġclimbing": 10907,
  "Ġcling": 32645,
  "Ġclinic": 8474,
  "Ġclinical": 5154,
  "Ġclinics": 12538,
  "Ġclip": 7200,
  "Ġclips": 16610,
  "Ġclo": 42771,
  "Ġcloak": 40725,
  "Ġclock": 6700,
  "Ġclos": 20956,
  "Ġclose": 593,
  "Ġclosed": 1367,
  "Ġclosely": 3615,
  "Ġcloser": 2789,
  "Ġclosest": 8099,
  "Ġclosing": 3172,
  "Ġclosure": 6803,
  "Ġclosures": 11610,
  "Ġclothes": 5418,
  "Ġclothing": 5296,
  "Ġcloud": 3613,
  "Ġclout": 28353,
  "Ġclub": 950,
  "Ġclueless": 36776,
  "Ġclues": 14885,
  "Ġclustered": 42208,
  "Ġclusters": 28255,
  "Ġco": 1029,
  "Ġcoal": 4051,
  "Ġcoalition": 3782,
  "Ġcoast": 3673,
  "Ġcoat": 9540,
  "Ġcocaine": 9890,
  "Ġcocktails": 18279,
  "Ġcod": 20993,
  "Ġcode": 3260,
  "Ġcoded": 40498,
  "Ġcoff": 32718,
  "Ġcogn": 28105,
  "Ġcognitive": 14526,
  "Ġcoherent": 29977,
  "Ġcoils": 43711,
  "Ġcoin": 12911,
  "Ġcoinc": 24634,
  "Ġcoincide": 25962,
  "Ġcoincided": 25701,
  "Ġcoincidence": 21279,
  "Ġcoincides": 30903,
  "Ġcoins": 15750,
  "Ġcol": 11311,
  "Ġcold": 2569,
  "Ġcoll": 9843,
  "Ġcollabor": 33074,
  "Ġcollaborate": 16075,
  "Ġcollaborated": 21793,
  "Ġcollaborating": 21640,
  "Ġcollaboration": 4918,
  "Ġcollaborative": 14473,
  "Ġcollaborators": 29207,
  "Ġcollapse": 6277,
  "Ġcollapsed": 7793,
  "Ġcollapses": 33947,
  "Ġcollapsing": 25399,
  "Ġcollar": 19008,
  "Ġcollateral": 17944,
  "Ġcolleague": 9896,
  "Ġcolleagues": 4025,
  "Ġcollect": 5555,
[...]
